{"0": "<unk>", "1": "<s>", "2": "</s>", "3": "[INST]", "4": "[/INST]", "5": "[AVAILABLE_TOOLS]", "6": "[/AVAILABLE_TOOLS]", "7": "[TOOL_RESULTS]", "8": "[/TOOL_RESULTS]", "9": "[TOOL_CALLS]", "10": "<|im_start|>", "11": "<|im_end|>", "12": "<think>", "13": "</think>", "14": "<tool_call>", "15": "</tool_call>", "16": "<tool_response>", "17": "</tool_response>", "18": "<SPECIAL_18>", "19": "<SPECIAL_19>", "20": "<SPECIAL_20>", "21": "<SPECIAL_21>", "22": "<SPECIAL_22>", "23": "<SPECIAL_23>", "24": "<SPECIAL_24>", "25": "<SPECIAL_25>", "26": "<SPECIAL_26>", "27": "<SPECIAL_27>", "28": "<SPECIAL_28>", "29": "<SPECIAL_29>", "30": "<SPECIAL_30>", "31": "<SPECIAL_31>", "32": "<SPECIAL_32>", "33": "<SPECIAL_33>", "34": "<SPECIAL_34>", "35": "<SPECIAL_35>", "36": "<SPECIAL_36>", "37": "<SPECIAL_37>", "38": "<SPECIAL_38>", "39": "<SPECIAL_39>", "40": "<SPECIAL_40>", "41": "<SPECIAL_41>", "42": "<SPECIAL_42>", "43": "<SPECIAL_43>", "44": "<SPECIAL_44>", "45": "<SPECIAL_45>", "46": "<SPECIAL_46>", "47": "<SPECIAL_47>", "48": "<SPECIAL_48>", "49": "<SPECIAL_49>", "50": "<SPECIAL_50>", "51": "<SPECIAL_51>", "52": "<SPECIAL_52>", "53": "<SPECIAL_53>", "54": "<SPECIAL_54>", "55": "<SPECIAL_55>", "56": "<SPECIAL_56>", "57": "<SPECIAL_57>", "58": "<SPECIAL_58>", "59": "<SPECIAL_59>", "60": "<SPECIAL_60>", "61": "<SPECIAL_61>", "62": "<SPECIAL_62>", "63": "<SPECIAL_63>", "64": "<SPECIAL_64>", "65": "<SPECIAL_65>", "66": "<SPECIAL_66>", "67": "<SPECIAL_67>", "68": "<SPECIAL_68>", "69": "<SPECIAL_69>", "70": "<SPECIAL_70>", "71": "<SPECIAL_71>", "72": "<SPECIAL_72>", "73": "<SPECIAL_73>", "74": "<SPECIAL_74>", "75": "<SPECIAL_75>", "76": "<SPECIAL_76>", "77": "<SPECIAL_77>", "78": "<SPECIAL_78>", "79": "<SPECIAL_79>", "80": "<SPECIAL_80>", "81": "<SPECIAL_81>", "82": "<SPECIAL_82>", "83": "<SPECIAL_83>", "84": "<SPECIAL_84>", "85": "<SPECIAL_85>", "86": "<SPECIAL_86>", "87": "<SPECIAL_87>", "88": "<SPECIAL_88>", "89": "<SPECIAL_89>", "90": "<SPECIAL_90>", "91": "<SPECIAL_91>", "92": "<SPECIAL_92>", "93": "<SPECIAL_93>", "94": "<SPECIAL_94>", "95": "<SPECIAL_95>", "96": "<SPECIAL_96>", "97": "<SPECIAL_97>", "98": "<SPECIAL_98>", "99": "<SPECIAL_99>", "100": "<SPECIAL_100>", "101": "<SPECIAL_101>", "102": "<SPECIAL_102>", "103": "<SPECIAL_103>", "104": "<SPECIAL_104>", "105": "<SPECIAL_105>", "106": "<SPECIAL_106>", "107": "<SPECIAL_107>", "108": "<SPECIAL_108>", "109": "<SPECIAL_109>", "110": "<SPECIAL_110>", "111": "<SPECIAL_111>", "112": "<SPECIAL_112>", "113": "<SPECIAL_113>", "114": "<SPECIAL_114>", "115": "<SPECIAL_115>", "116": "<SPECIAL_116>", "117": "<SPECIAL_117>", "118": "<SPECIAL_118>", "119": "<SPECIAL_119>", "120": "<SPECIAL_120>", "121": "<SPECIAL_121>", "122": "<SPECIAL_122>", "123": "<SPECIAL_123>", "124": "<SPECIAL_124>", "125": "<SPECIAL_125>", "126": "<SPECIAL_126>", "127": "<SPECIAL_127>", "128": "<SPECIAL_128>", "129": "<SPECIAL_129>", "130": "<SPECIAL_130>", "131": "<SPECIAL_131>", "132": "<SPECIAL_132>", "133": "<SPECIAL_133>", "134": "<SPECIAL_134>", "135": "<SPECIAL_135>", "136": "<SPECIAL_136>", "137": "<SPECIAL_137>", "138": "<SPECIAL_138>", "139": "<SPECIAL_139>", "140": "<SPECIAL_140>", "141": "<SPECIAL_141>", "142": "<SPECIAL_142>", "143": "<SPECIAL_143>", "144": "<SPECIAL_144>", "145": "<SPECIAL_145>", "146": "<SPECIAL_146>", "147": "<SPECIAL_147>", "148": "<SPECIAL_148>", "149": "<SPECIAL_149>", "150": "<SPECIAL_150>", "151": "<SPECIAL_151>", "152": "<SPECIAL_152>", "153": "<SPECIAL_153>", "154": "<SPECIAL_154>", "155": "<SPECIAL_155>", "156": "<SPECIAL_156>", "157": "<SPECIAL_157>", "158": "<SPECIAL_158>", "159": "<SPECIAL_159>", "160": "<SPECIAL_160>", "161": "<SPECIAL_161>", "162": "<SPECIAL_162>", "163": "<SPECIAL_163>", "164": "<SPECIAL_164>", "165": "<SPECIAL_165>", "166": "<SPECIAL_166>", "167": "<SPECIAL_167>", "168": "<SPECIAL_168>", "169": "<SPECIAL_169>", "170": "<SPECIAL_170>", "171": "<SPECIAL_171>", "172": "<SPECIAL_172>", "173": "<SPECIAL_173>", "174": "<SPECIAL_174>", "175": "<SPECIAL_175>", "176": "<SPECIAL_176>", "177": "<SPECIAL_177>", "178": "<SPECIAL_178>", "179": "<SPECIAL_179>", "180": "<SPECIAL_180>", "181": "<SPECIAL_181>", "182": "<SPECIAL_182>", "183": "<SPECIAL_183>", "184": "<SPECIAL_184>", "185": "<SPECIAL_185>", "186": "<SPECIAL_186>", "187": "<SPECIAL_187>", "188": "<SPECIAL_188>", "189": "<SPECIAL_189>", "190": "<SPECIAL_190>", "191": "<SPECIAL_191>", "192": "<SPECIAL_192>", "193": "<SPECIAL_193>", "194": "<SPECIAL_194>", "195": "<SPECIAL_195>", "196": "<SPECIAL_196>", "197": "<SPECIAL_197>", "198": "<SPECIAL_198>", "199": "<SPECIAL_199>", "200": "<SPECIAL_200>", "201": "<SPECIAL_201>", "202": "<SPECIAL_202>", "203": "<SPECIAL_203>", "204": "<SPECIAL_204>", "205": "<SPECIAL_205>", "206": "<SPECIAL_206>", "207": "<SPECIAL_207>", "208": "<SPECIAL_208>", "209": "<SPECIAL_209>", "210": "<SPECIAL_210>", "211": "<SPECIAL_211>", "212": "<SPECIAL_212>", "213": "<SPECIAL_213>", "214": "<SPECIAL_214>", "215": "<SPECIAL_215>", "216": "<SPECIAL_216>", "217": "<SPECIAL_217>", "218": "<SPECIAL_218>", "219": "<SPECIAL_219>", "220": "<SPECIAL_220>", "221": "<SPECIAL_221>", "222": "<SPECIAL_222>", "223": "<SPECIAL_223>", "224": "<SPECIAL_224>", "225": "<SPECIAL_225>", "226": "<SPECIAL_226>", "227": "<SPECIAL_227>", "228": "<SPECIAL_228>", "229": "<SPECIAL_229>", "230": "<SPECIAL_230>", "231": "<SPECIAL_231>", "232": "<SPECIAL_232>", "233": "<SPECIAL_233>", "234": "<SPECIAL_234>", "235": "<SPECIAL_235>", "236": "<SPECIAL_236>", "237": "<SPECIAL_237>", "238": "<SPECIAL_238>", "239": "<SPECIAL_239>", "240": "<SPECIAL_240>", "241": "<SPECIAL_241>", "242": "<SPECIAL_242>", "243": "<SPECIAL_243>", "244": "<SPECIAL_244>", "245": "<SPECIAL_245>", "246": "<SPECIAL_246>", "247": "<SPECIAL_247>", "248": "<SPECIAL_248>", "249": "<SPECIAL_249>", "250": "<SPECIAL_250>", "251": "<SPECIAL_251>", "252": "<SPECIAL_252>", "253": "<SPECIAL_253>", "254": "<SPECIAL_254>", "255": "<SPECIAL_255>", "256": "<SPECIAL_256>", "257": "<SPECIAL_257>", "258": "<SPECIAL_258>", "259": "<SPECIAL_259>", "260": "<SPECIAL_260>", "261": "<SPECIAL_261>", "262": "<SPECIAL_262>", "263": "<SPECIAL_263>", "264": "<SPECIAL_264>", "265": "<SPECIAL_265>", "266": "<SPECIAL_266>", "267": "<SPECIAL_267>", "268": "<SPECIAL_268>", "269": "<SPECIAL_269>", "270": "<SPECIAL_270>", "271": "<SPECIAL_271>", "272": "<SPECIAL_272>", "273": "<SPECIAL_273>", "274": "<SPECIAL_274>", "275": "<SPECIAL_275>", "276": "<SPECIAL_276>", "277": "<SPECIAL_277>", "278": "<SPECIAL_278>", "279": "<SPECIAL_279>", "280": "<SPECIAL_280>", "281": "<SPECIAL_281>", "282": "<SPECIAL_282>", "283": "<SPECIAL_283>", "284": "<SPECIAL_284>", "285": "<SPECIAL_285>", "286": "<SPECIAL_286>", "287": "<SPECIAL_287>", "288": "<SPECIAL_288>", "289": "<SPECIAL_289>", "290": "<SPECIAL_290>", "291": "<SPECIAL_291>", "292": "<SPECIAL_292>", "293": "<SPECIAL_293>", "294": "<SPECIAL_294>", "295": "<SPECIAL_295>", "296": "<SPECIAL_296>", "297": "<SPECIAL_297>", "298": "<SPECIAL_298>", "299": "<SPECIAL_299>", "300": "<SPECIAL_300>", "301": "<SPECIAL_301>", "302": "<SPECIAL_302>", "303": "<SPECIAL_303>", "304": "<SPECIAL_304>", "305": "<SPECIAL_305>", "306": "<SPECIAL_306>", "307": "<SPECIAL_307>", "308": "<SPECIAL_308>", "309": "<SPECIAL_309>", "310": "<SPECIAL_310>", "311": "<SPECIAL_311>", "312": "<SPECIAL_312>", "313": "<SPECIAL_313>", "314": "<SPECIAL_314>", "315": "<SPECIAL_315>", "316": "<SPECIAL_316>", "317": "<SPECIAL_317>", "318": "<SPECIAL_318>", "319": "<SPECIAL_319>", "320": "<SPECIAL_320>", "321": "<SPECIAL_321>", "322": "<SPECIAL_322>", "323": "<SPECIAL_323>", "324": "<SPECIAL_324>", "325": "<SPECIAL_325>", "326": "<SPECIAL_326>", "327": "<SPECIAL_327>", "328": "<SPECIAL_328>", "329": "<SPECIAL_329>", "330": "<SPECIAL_330>", "331": "<SPECIAL_331>", "332": "<SPECIAL_332>", "333": "<SPECIAL_333>", "334": "<SPECIAL_334>", "335": "<SPECIAL_335>", "336": "<SPECIAL_336>", "337": "<SPECIAL_337>", "338": "<SPECIAL_338>", "339": "<SPECIAL_339>", "340": "<SPECIAL_340>", "341": "<SPECIAL_341>", "342": "<SPECIAL_342>", "343": "<SPECIAL_343>", "344": "<SPECIAL_344>", "345": "<SPECIAL_345>", "346": "<SPECIAL_346>", "347": "<SPECIAL_347>", "348": "<SPECIAL_348>", "349": "<SPECIAL_349>", "350": "<SPECIAL_350>", "351": "<SPECIAL_351>", "352": "<SPECIAL_352>", "353": "<SPECIAL_353>", "354": "<SPECIAL_354>", "355": "<SPECIAL_355>", "356": "<SPECIAL_356>", "357": "<SPECIAL_357>", "358": "<SPECIAL_358>", "359": "<SPECIAL_359>", "360": "<SPECIAL_360>", "361": "<SPECIAL_361>", "362": "<SPECIAL_362>", "363": "<SPECIAL_363>", "364": "<SPECIAL_364>", "365": "<SPECIAL_365>", "366": "<SPECIAL_366>", "367": "<SPECIAL_367>", "368": "<SPECIAL_368>", "369": "<SPECIAL_369>", "370": "<SPECIAL_370>", "371": "<SPECIAL_371>", "372": "<SPECIAL_372>", "373": "<SPECIAL_373>", "374": "<SPECIAL_374>", "375": "<SPECIAL_375>", "376": "<SPECIAL_376>", "377": "<SPECIAL_377>", "378": "<SPECIAL_378>", "379": "<SPECIAL_379>", "380": "<SPECIAL_380>", "381": "<SPECIAL_381>", "382": "<SPECIAL_382>", "383": "<SPECIAL_383>", "384": "<SPECIAL_384>", "385": "<SPECIAL_385>", "386": "<SPECIAL_386>", "387": "<SPECIAL_387>", "388": "<SPECIAL_388>", "389": "<SPECIAL_389>", "390": "<SPECIAL_390>", "391": "<SPECIAL_391>", "392": "<SPECIAL_392>", "393": "<SPECIAL_393>", "394": "<SPECIAL_394>", "395": "<SPECIAL_395>", "396": "<SPECIAL_396>", "397": "<SPECIAL_397>", "398": "<SPECIAL_398>", "399": "<SPECIAL_399>", "400": "<SPECIAL_400>", "401": "<SPECIAL_401>", "402": "<SPECIAL_402>", "403": "<SPECIAL_403>", "404": "<SPECIAL_404>", "405": "<SPECIAL_405>", "406": "<SPECIAL_406>", "407": "<SPECIAL_407>", "408": "<SPECIAL_408>", "409": "<SPECIAL_409>", "410": "<SPECIAL_410>", "411": "<SPECIAL_411>", "412": "<SPECIAL_412>", "413": "<SPECIAL_413>", "414": "<SPECIAL_414>", "415": "<SPECIAL_415>", "416": "<SPECIAL_416>", "417": "<SPECIAL_417>", "418": "<SPECIAL_418>", "419": "<SPECIAL_419>", "420": "<SPECIAL_420>", "421": "<SPECIAL_421>", "422": "<SPECIAL_422>", "423": "<SPECIAL_423>", "424": "<SPECIAL_424>", "425": "<SPECIAL_425>", "426": "<SPECIAL_426>", "427": "<SPECIAL_427>", "428": "<SPECIAL_428>", "429": "<SPECIAL_429>", "430": "<SPECIAL_430>", "431": "<SPECIAL_431>", "432": "<SPECIAL_432>", "433": "<SPECIAL_433>", "434": "<SPECIAL_434>", "435": "<SPECIAL_435>", "436": "<SPECIAL_436>", "437": "<SPECIAL_437>", "438": "<SPECIAL_438>", "439": "<SPECIAL_439>", "440": "<SPECIAL_440>", "441": "<SPECIAL_441>", "442": "<SPECIAL_442>", "443": "<SPECIAL_443>", "444": "<SPECIAL_444>", "445": "<SPECIAL_445>", "446": "<SPECIAL_446>", "447": "<SPECIAL_447>", "448": "<SPECIAL_448>", "449": "<SPECIAL_449>", "450": "<SPECIAL_450>", "451": "<SPECIAL_451>", "452": "<SPECIAL_452>", "453": "<SPECIAL_453>", "454": "<SPECIAL_454>", "455": "<SPECIAL_455>", "456": "<SPECIAL_456>", "457": "<SPECIAL_457>", "458": "<SPECIAL_458>", "459": "<SPECIAL_459>", "460": "<SPECIAL_460>", "461": "<SPECIAL_461>", "462": "<SPECIAL_462>", "463": "<SPECIAL_463>", "464": "<SPECIAL_464>", "465": "<SPECIAL_465>", "466": "<SPECIAL_466>", "467": "<SPECIAL_467>", "468": "<SPECIAL_468>", "469": "<SPECIAL_469>", "470": "<SPECIAL_470>", "471": "<SPECIAL_471>", "472": "<SPECIAL_472>", "473": "<SPECIAL_473>", "474": "<SPECIAL_474>", "475": "<SPECIAL_475>", "476": "<SPECIAL_476>", "477": "<SPECIAL_477>", "478": "<SPECIAL_478>", "479": "<SPECIAL_479>", "480": "<SPECIAL_480>", "481": "<SPECIAL_481>", "482": "<SPECIAL_482>", "483": "<SPECIAL_483>", "484": "<SPECIAL_484>", "485": "<SPECIAL_485>", "486": "<SPECIAL_486>", "487": "<SPECIAL_487>", "488": "<SPECIAL_488>", "489": "<SPECIAL_489>", "490": "<SPECIAL_490>", "491": "<SPECIAL_491>", "492": "<SPECIAL_492>", "493": "<SPECIAL_493>", "494": "<SPECIAL_494>", "495": "<SPECIAL_495>", "496": "<SPECIAL_496>", "497": "<SPECIAL_497>", "498": "<SPECIAL_498>", "499": "<SPECIAL_499>", "500": "<SPECIAL_500>", "501": "<SPECIAL_501>", "502": "<SPECIAL_502>", "503": "<SPECIAL_503>", "504": "<SPECIAL_504>", "505": "<SPECIAL_505>", "506": "<SPECIAL_506>", "507": "<SPECIAL_507>", "508": "<SPECIAL_508>", "509": "<SPECIAL_509>", "510": "<SPECIAL_510>", "511": "<SPECIAL_511>", "512": "<SPECIAL_512>", "513": "<SPECIAL_513>", "514": "<SPECIAL_514>", "515": "<SPECIAL_515>", "516": "<SPECIAL_516>", "517": "<SPECIAL_517>", "518": "<SPECIAL_518>", "519": "<SPECIAL_519>", "520": "<SPECIAL_520>", "521": "<SPECIAL_521>", "522": "<SPECIAL_522>", "523": "<SPECIAL_523>", "524": "<SPECIAL_524>", "525": "<SPECIAL_525>", "526": "<SPECIAL_526>", "527": "<SPECIAL_527>", "528": "<SPECIAL_528>", "529": "<SPECIAL_529>", "530": "<SPECIAL_530>", "531": "<SPECIAL_531>", "532": "<SPECIAL_532>", "533": "<SPECIAL_533>", "534": "<SPECIAL_534>", "535": "<SPECIAL_535>", "536": "<SPECIAL_536>", "537": "<SPECIAL_537>", "538": "<SPECIAL_538>", "539": "<SPECIAL_539>", "540": "<SPECIAL_540>", "541": "<SPECIAL_541>", "542": "<SPECIAL_542>", "543": "<SPECIAL_543>", "544": "<SPECIAL_544>", "545": "<SPECIAL_545>", "546": "<SPECIAL_546>", "547": "<SPECIAL_547>", "548": "<SPECIAL_548>", "549": "<SPECIAL_549>", "550": "<SPECIAL_550>", "551": "<SPECIAL_551>", "552": "<SPECIAL_552>", "553": "<SPECIAL_553>", "554": "<SPECIAL_554>", "555": "<SPECIAL_555>", "556": "<SPECIAL_556>", "557": "<SPECIAL_557>", "558": "<SPECIAL_558>", "559": "<SPECIAL_559>", "560": "<SPECIAL_560>", "561": "<SPECIAL_561>", "562": "<SPECIAL_562>", "563": "<SPECIAL_563>", "564": "<SPECIAL_564>", "565": "<SPECIAL_565>", "566": "<SPECIAL_566>", "567": "<SPECIAL_567>", "568": "<SPECIAL_568>", "569": "<SPECIAL_569>", "570": "<SPECIAL_570>", "571": "<SPECIAL_571>", "572": "<SPECIAL_572>", "573": "<SPECIAL_573>", "574": "<SPECIAL_574>", "575": "<SPECIAL_575>", "576": "<SPECIAL_576>", "577": "<SPECIAL_577>", "578": "<SPECIAL_578>", "579": "<SPECIAL_579>", "580": "<SPECIAL_580>", "581": "<SPECIAL_581>", "582": "<SPECIAL_582>", "583": "<SPECIAL_583>", "584": "<SPECIAL_584>", "585": "<SPECIAL_585>", "586": "<SPECIAL_586>", "587": "<SPECIAL_587>", "588": "<SPECIAL_588>", "589": "<SPECIAL_589>", "590": "<SPECIAL_590>", "591": "<SPECIAL_591>", "592": "<SPECIAL_592>", "593": "<SPECIAL_593>", "594": "<SPECIAL_594>", "595": "<SPECIAL_595>", "596": "<SPECIAL_596>", "597": "<SPECIAL_597>", "598": "<SPECIAL_598>", "599": "<SPECIAL_599>", "600": "<SPECIAL_600>", "601": "<SPECIAL_601>", "602": "<SPECIAL_602>", "603": "<SPECIAL_603>", "604": "<SPECIAL_604>", "605": "<SPECIAL_605>", "606": "<SPECIAL_606>", "607": "<SPECIAL_607>", "608": "<SPECIAL_608>", "609": "<SPECIAL_609>", "610": "<SPECIAL_610>", "611": "<SPECIAL_611>", "612": "<SPECIAL_612>", "613": "<SPECIAL_613>", "614": "<SPECIAL_614>", "615": "<SPECIAL_615>", "616": "<SPECIAL_616>", "617": "<SPECIAL_617>", "618": "<SPECIAL_618>", "619": "<SPECIAL_619>", "620": "<SPECIAL_620>", "621": "<SPECIAL_621>", "622": "<SPECIAL_622>", "623": "<SPECIAL_623>", "624": "<SPECIAL_624>", "625": "<SPECIAL_625>", "626": "<SPECIAL_626>", "627": "<SPECIAL_627>", "628": "<SPECIAL_628>", "629": "<SPECIAL_629>", "630": "<SPECIAL_630>", "631": "<SPECIAL_631>", "632": "<SPECIAL_632>", "633": "<SPECIAL_633>", "634": "<SPECIAL_634>", "635": "<SPECIAL_635>", "636": "<SPECIAL_636>", "637": "<SPECIAL_637>", "638": "<SPECIAL_638>", "639": "<SPECIAL_639>", "640": "<SPECIAL_640>", "641": "<SPECIAL_641>", "642": "<SPECIAL_642>", "643": "<SPECIAL_643>", "644": "<SPECIAL_644>", "645": "<SPECIAL_645>", "646": "<SPECIAL_646>", "647": "<SPECIAL_647>", "648": "<SPECIAL_648>", "649": "<SPECIAL_649>", "650": "<SPECIAL_650>", "651": "<SPECIAL_651>", "652": "<SPECIAL_652>", "653": "<SPECIAL_653>", "654": "<SPECIAL_654>", "655": "<SPECIAL_655>", "656": "<SPECIAL_656>", "657": "<SPECIAL_657>", "658": "<SPECIAL_658>", "659": "<SPECIAL_659>", "660": "<SPECIAL_660>", "661": "<SPECIAL_661>", "662": "<SPECIAL_662>", "663": "<SPECIAL_663>", "664": "<SPECIAL_664>", "665": "<SPECIAL_665>", "666": "<SPECIAL_666>", "667": "<SPECIAL_667>", "668": "<SPECIAL_668>", "669": "<SPECIAL_669>", "670": "<SPECIAL_670>", "671": "<SPECIAL_671>", "672": "<SPECIAL_672>", "673": "<SPECIAL_673>", "674": "<SPECIAL_674>", "675": "<SPECIAL_675>", "676": "<SPECIAL_676>", "677": "<SPECIAL_677>", "678": "<SPECIAL_678>", "679": "<SPECIAL_679>", "680": "<SPECIAL_680>", "681": "<SPECIAL_681>", "682": "<SPECIAL_682>", "683": "<SPECIAL_683>", "684": "<SPECIAL_684>", "685": "<SPECIAL_685>", "686": "<SPECIAL_686>", "687": "<SPECIAL_687>", "688": "<SPECIAL_688>", "689": "<SPECIAL_689>", "690": "<SPECIAL_690>", "691": "<SPECIAL_691>", "692": "<SPECIAL_692>", "693": "<SPECIAL_693>", "694": "<SPECIAL_694>", "695": "<SPECIAL_695>", "696": "<SPECIAL_696>", "697": "<SPECIAL_697>", "698": "<SPECIAL_698>", "699": "<SPECIAL_699>", "700": "<SPECIAL_700>", "701": "<SPECIAL_701>", "702": "<SPECIAL_702>", "703": "<SPECIAL_703>", "704": "<SPECIAL_704>", "705": "<SPECIAL_705>", "706": "<SPECIAL_706>", "707": "<SPECIAL_707>", "708": "<SPECIAL_708>", "709": "<SPECIAL_709>", "710": "<SPECIAL_710>", "711": "<SPECIAL_711>", "712": "<SPECIAL_712>", "713": "<SPECIAL_713>", "714": "<SPECIAL_714>", "715": "<SPECIAL_715>", "716": "<SPECIAL_716>", "717": "<SPECIAL_717>", "718": "<SPECIAL_718>", "719": "<SPECIAL_719>", "720": "<SPECIAL_720>", "721": "<SPECIAL_721>", "722": "<SPECIAL_722>", "723": "<SPECIAL_723>", "724": "<SPECIAL_724>", "725": "<SPECIAL_725>", "726": "<SPECIAL_726>", "727": "<SPECIAL_727>", "728": "<SPECIAL_728>", "729": "<SPECIAL_729>", "730": "<SPECIAL_730>", "731": "<SPECIAL_731>", "732": "<SPECIAL_732>", "733": "<SPECIAL_733>", "734": "<SPECIAL_734>", "735": "<SPECIAL_735>", "736": "<SPECIAL_736>", "737": "<SPECIAL_737>", "738": "<SPECIAL_738>", "739": "<SPECIAL_739>", "740": "<SPECIAL_740>", "741": "<SPECIAL_741>", "742": "<SPECIAL_742>", "743": "<SPECIAL_743>", "744": "<SPECIAL_744>", "745": "<SPECIAL_745>", "746": "<SPECIAL_746>", "747": "<SPECIAL_747>", "748": "<SPECIAL_748>", "749": "<SPECIAL_749>", "750": "<SPECIAL_750>", "751": "<SPECIAL_751>", "752": "<SPECIAL_752>", "753": "<SPECIAL_753>", "754": "<SPECIAL_754>", "755": "<SPECIAL_755>", "756": "<SPECIAL_756>", "757": "<SPECIAL_757>", "758": "<SPECIAL_758>", "759": "<SPECIAL_759>", "760": "<SPECIAL_760>", "761": "<SPECIAL_761>", "762": "<SPECIAL_762>", "763": "<SPECIAL_763>", "764": "<SPECIAL_764>", "765": "<SPECIAL_765>", "766": "<SPECIAL_766>", "767": "<SPECIAL_767>", "768": "<SPECIAL_768>", "769": "<SPECIAL_769>", "770": "<SPECIAL_770>", "771": "<SPECIAL_771>", "772": "<SPECIAL_772>", "773": "<SPECIAL_773>", "774": "<SPECIAL_774>", "775": "<SPECIAL_775>", "776": "<SPECIAL_776>", "777": "<SPECIAL_777>", "778": "<SPECIAL_778>", "779": "<SPECIAL_779>", "780": "<SPECIAL_780>", "781": "<SPECIAL_781>", "782": "<SPECIAL_782>", "783": "<SPECIAL_783>", "784": "<SPECIAL_784>", "785": "<SPECIAL_785>", "786": "<SPECIAL_786>", "787": "<SPECIAL_787>", "788": "<SPECIAL_788>", "789": "<SPECIAL_789>", "790": "<SPECIAL_790>", "791": "<SPECIAL_791>", "792": "<SPECIAL_792>", "793": "<SPECIAL_793>", "794": "<SPECIAL_794>", "795": "<SPECIAL_795>", "796": "<SPECIAL_796>", "797": "<SPECIAL_797>", "798": "<SPECIAL_798>", "799": "<SPECIAL_799>", "800": "<SPECIAL_800>", "801": "<SPECIAL_801>", "802": "<SPECIAL_802>", "803": "<SPECIAL_803>", "804": "<SPECIAL_804>", "805": "<SPECIAL_805>", "806": "<SPECIAL_806>", "807": "<SPECIAL_807>", "808": "<SPECIAL_808>", "809": "<SPECIAL_809>", "810": "<SPECIAL_810>", "811": "<SPECIAL_811>", "812": "<SPECIAL_812>", "813": "<SPECIAL_813>", "814": "<SPECIAL_814>", "815": "<SPECIAL_815>", "816": "<SPECIAL_816>", "817": "<SPECIAL_817>", "818": "<SPECIAL_818>", "819": "<SPECIAL_819>", "820": "<SPECIAL_820>", "821": "<SPECIAL_821>", "822": "<SPECIAL_822>", "823": "<SPECIAL_823>", "824": "<SPECIAL_824>", "825": "<SPECIAL_825>", "826": "<SPECIAL_826>", "827": "<SPECIAL_827>", "828": "<SPECIAL_828>", "829": "<SPECIAL_829>", "830": "<SPECIAL_830>", "831": "<SPECIAL_831>", "832": "<SPECIAL_832>", "833": "<SPECIAL_833>", "834": "<SPECIAL_834>", "835": "<SPECIAL_835>", "836": "<SPECIAL_836>", "837": "<SPECIAL_837>", "838": "<SPECIAL_838>", "839": "<SPECIAL_839>", "840": "<SPECIAL_840>", "841": "<SPECIAL_841>", "842": "<SPECIAL_842>", "843": "<SPECIAL_843>", "844": "<SPECIAL_844>", "845": "<SPECIAL_845>", "846": "<SPECIAL_846>", "847": "<SPECIAL_847>", "848": "<SPECIAL_848>", "849": "<SPECIAL_849>", "850": "<SPECIAL_850>", "851": "<SPECIAL_851>", "852": "<SPECIAL_852>", "853": "<SPECIAL_853>", "854": "<SPECIAL_854>", "855": "<SPECIAL_855>", "856": "<SPECIAL_856>", "857": "<SPECIAL_857>", "858": "<SPECIAL_858>", "859": "<SPECIAL_859>", "860": "<SPECIAL_860>", "861": "<SPECIAL_861>", "862": "<SPECIAL_862>", "863": "<SPECIAL_863>", "864": "<SPECIAL_864>", "865": "<SPECIAL_865>", "866": "<SPECIAL_866>", "867": "<SPECIAL_867>", "868": "<SPECIAL_868>", "869": "<SPECIAL_869>", "870": "<SPECIAL_870>", "871": "<SPECIAL_871>", "872": "<SPECIAL_872>", "873": "<SPECIAL_873>", "874": "<SPECIAL_874>", "875": "<SPECIAL_875>", "876": "<SPECIAL_876>", "877": "<SPECIAL_877>", "878": "<SPECIAL_878>", "879": "<SPECIAL_879>", "880": "<SPECIAL_880>", "881": "<SPECIAL_881>", "882": "<SPECIAL_882>", "883": "<SPECIAL_883>", "884": "<SPECIAL_884>", "885": "<SPECIAL_885>", "886": "<SPECIAL_886>", "887": "<SPECIAL_887>", "888": "<SPECIAL_888>", "889": "<SPECIAL_889>", "890": "<SPECIAL_890>", "891": "<SPECIAL_891>", "892": "<SPECIAL_892>", "893": "<SPECIAL_893>", "894": "<SPECIAL_894>", "895": "<SPECIAL_895>", "896": "<SPECIAL_896>", "897": "<SPECIAL_897>", "898": "<SPECIAL_898>", "899": "<SPECIAL_899>", "900": "<SPECIAL_900>", "901": "<SPECIAL_901>", "902": "<SPECIAL_902>", "903": "<SPECIAL_903>", "904": "<SPECIAL_904>", "905": "<SPECIAL_905>", "906": "<SPECIAL_906>", "907": "<SPECIAL_907>", "908": "<SPECIAL_908>", "909": "<SPECIAL_909>", "910": "<SPECIAL_910>", "911": "<SPECIAL_911>", "912": "<SPECIAL_912>", "913": "<SPECIAL_913>", "914": "<SPECIAL_914>", "915": "<SPECIAL_915>", "916": "<SPECIAL_916>", "917": "<SPECIAL_917>", "918": "<SPECIAL_918>", "919": "<SPECIAL_919>", "920": "<SPECIAL_920>", "921": "<SPECIAL_921>", "922": "<SPECIAL_922>", "923": "<SPECIAL_923>", "924": "<SPECIAL_924>", "925": "<SPECIAL_925>", "926": "<SPECIAL_926>", "927": "<SPECIAL_927>", "928": "<SPECIAL_928>", "929": "<SPECIAL_929>", "930": "<SPECIAL_930>", "931": "<SPECIAL_931>", "932": "<SPECIAL_932>", "933": "<SPECIAL_933>", "934": "<SPECIAL_934>", "935": "<SPECIAL_935>", "936": "<SPECIAL_936>", "937": "<SPECIAL_937>", "938": "<SPECIAL_938>", "939": "<SPECIAL_939>", "940": "<SPECIAL_940>", "941": "<SPECIAL_941>", "942": "<SPECIAL_942>", "943": "<SPECIAL_943>", "944": "<SPECIAL_944>", "945": "<SPECIAL_945>", "946": "<SPECIAL_946>", "947": "<SPECIAL_947>", "948": "<SPECIAL_948>", "949": "<SPECIAL_949>", "950": "<SPECIAL_950>", "951": "<SPECIAL_951>", "952": "<SPECIAL_952>", "953": "<SPECIAL_953>", "954": "<SPECIAL_954>", "955": "<SPECIAL_955>", "956": "<SPECIAL_956>", "957": "<SPECIAL_957>", "958": "<SPECIAL_958>", "959": "<SPECIAL_959>", "960": "<SPECIAL_960>", "961": "<SPECIAL_961>", "962": "<SPECIAL_962>", "963": "<SPECIAL_963>", "964": "<SPECIAL_964>", "965": "<SPECIAL_965>", "966": "<SPECIAL_966>", "967": "<SPECIAL_967>", "968": "<SPECIAL_968>", "969": "<SPECIAL_969>", "970": "<SPECIAL_970>", "971": "<SPECIAL_971>", "972": "<SPECIAL_972>", "973": "<SPECIAL_973>", "974": "<SPECIAL_974>", "975": "<SPECIAL_975>", "976": "<SPECIAL_976>", "977": "<SPECIAL_977>", "978": "<SPECIAL_978>", "979": "<SPECIAL_979>", "980": "<SPECIAL_980>", "981": "<SPECIAL_981>", "982": "<SPECIAL_982>", "983": "<SPECIAL_983>", "984": "<SPECIAL_984>", "985": "<SPECIAL_985>", "986": "<SPECIAL_986>", "987": "<SPECIAL_987>", "988": "<SPECIAL_988>", "989": "<SPECIAL_989>", "990": "<SPECIAL_990>", "991": "<SPECIAL_991>", "992": "<SPECIAL_992>", "993": "<SPECIAL_993>", "994": "<SPECIAL_994>", "995": "<SPECIAL_995>", "996": "<SPECIAL_996>", "997": "<SPECIAL_997>", "998": "<SPECIAL_998>", "999": "<SPECIAL_999>", "1000": "<0x00>", "1001": "<0x01>", "1002": "<0x02>", "1003": "<0x03>", "1004": "<0x04>", "1005": "<0x05>", "1006": "<0x06>", "1007": "<0x07>", "1008": "<0x08>", "1009": "<0x09>", "1010": "<0x0A>", "1011": "<0x0B>", "1012": "<0x0C>", "1013": "<0x0D>", "1014": "<0x0E>", "1015": "<0x0F>", "1016": "<0x10>", "1017": "<0x11>", "1018": "<0x12>", "1019": "<0x13>", "1020": "<0x14>", "1021": "<0x15>", "1022": "<0x16>", "1023": "<0x17>", "1024": "<0x18>", "1025": "<0x19>", "1026": "<0x1A>", "1027": "<0x1B>", "1028": "<0x1C>", "1029": "<0x1D>", "1030": "<0x1E>", "1031": "<0x1F>", "1032": " ", "1033": "!", "1034": "\"", "1035": "#", "1036": "$", "1037": "%", "1038": "&", "1039": "'", "1040": "(", "1041": ")", "1042": "*", "1043": "+", "1044": ",", "1045": "-", "1046": ".", "1047": "/", "1048": "0", "1049": "1", "1050": "2", "1051": "3", "1052": "4", "1053": "5", "1054": "6", "1055": "7", "1056": "8", "1057": "9", "1058": ":", "1059": ";", "1060": "<", "1061": "=", "1062": ">", "1063": "?", "1064": "@", "1065": "A", "1066": "B", "1067": "C", "1068": "D", "1069": "E", "1070": "F", "1071": "G", "1072": "H", "1073": "I", "1074": "J", "1075": "K", "1076": "L", "1077": "M", "1078": "N", "1079": "O", "1080": "P", "1081": "Q", "1082": "R", "1083": "S", "1084": "T", "1085": "U", "1086": "V", "1087": "W", "1088": "X", "1089": "Y", "1090": "Z", "1091": "[", "1092": "\\", "1093": "]", "1094": "^", "1095": "_", "1096": "`", "1097": "a", "1098": "b", "1099": "c", "1100": "d", "1101": "e", "1102": "f", "1103": "g", "1104": "h", "1105": "i", "1106": "j", "1107": "k", "1108": "l", "1109": "m", "1110": "n", "1111": "o", "1112": "p", "1113": "q", "1114": "r", "1115": "s", "1116": "t", "1117": "u", "1118": "v", "1119": "w", "1120": "x", "1121": "y", "1122": "z", "1123": "{", "1124": "|", "1125": "}", "1126": "~", "1127": "<0x7F>", "1128": "<0x80>", "1129": "<0x81>", "1130": "<0x82>", "1131": "<0x83>", "1132": "<0x84>", "1133": "<0x85>", "1134": "<0x86>", "1135": "<0x87>", "1136": "<0x88>", "1137": "<0x89>", "1138": "<0x8A>", "1139": "<0x8B>", "1140": "<0x8C>", "1141": "<0x8D>", "1142": "<0x8E>", "1143": "<0x8F>", "1144": "<0x90>", "1145": "<0x91>", "1146": "<0x92>", "1147": "<0x93>", "1148": "<0x94>", "1149": "<0x95>", "1150": "<0x96>", "1151": "<0x97>", "1152": "<0x98>", "1153": "<0x99>", "1154": "<0x9A>", "1155": "<0x9B>", "1156": "<0x9C>", "1157": "<0x9D>", "1158": "<0x9E>", "1159": "<0x9F>", "1160": "<0xA0>", "1161": "<0xA1>", "1162": "<0xA2>", "1163": "<0xA3>", "1164": "<0xA4>", "1165": "<0xA5>", "1166": "<0xA6>", "1167": "<0xA7>", "1168": "<0xA8>", "1169": "<0xA9>", "1170": "<0xAA>", "1171": "<0xAB>", "1172": "<0xAC>", "1173": "<0xAD>", "1174": "<0xAE>", "1175": "<0xAF>", "1176": "<0xB0>", "1177": "<0xB1>", "1178": "<0xB2>", "1179": "<0xB3>", "1180": "<0xB4>", "1181": "<0xB5>", "1182": "<0xB6>", "1183": "<0xB7>", "1184": "<0xB8>", "1185": "<0xB9>", "1186": "<0xBA>", "1187": "<0xBB>", "1188": "<0xBC>", "1189": "<0xBD>", "1190": "<0xBE>", "1191": "<0xBF>", "1192": "<0xC0>", "1193": "<0xC1>", "1194": "<0xC2>", "1195": "<0xC3>", "1196": "<0xC4>", "1197": "<0xC5>", "1198": "<0xC6>", "1199": "<0xC7>", "1200": "<0xC8>", "1201": "<0xC9>", "1202": "<0xCA>", "1203": "<0xCB>", "1204": "<0xCC>", "1205": "<0xCD>", "1206": "<0xCE>", "1207": "<0xCF>", "1208": "<0xD0>", "1209": "<0xD1>", "1210": "<0xD2>", "1211": "<0xD3>", "1212": "<0xD4>", "1213": "<0xD5>", "1214": "<0xD6>", "1215": "<0xD7>", "1216": "<0xD8>", "1217": "<0xD9>", "1218": "<0xDA>", "1219": "<0xDB>", "1220": "<0xDC>", "1221": "<0xDD>", "1222": "<0xDE>", "1223": "<0xDF>", "1224": "<0xE0>", "1225": "<0xE1>", "1226": "<0xE2>", "1227": "<0xE3>", "1228": "<0xE4>", "1229": "<0xE5>", "1230": "<0xE6>", "1231": "<0xE7>", "1232": "<0xE8>", "1233": "<0xE9>", "1234": "<0xEA>", "1235": "<0xEB>", "1236": "<0xEC>", "1237": "<0xED>", "1238": "<0xEE>", "1239": "<0xEF>", "1240": "<0xF0>", "1241": "<0xF1>", "1242": "<0xF2>", "1243": "<0xF3>", "1244": "<0xF4>", "1245": "<0xF5>", "1246": "<0xF6>", "1247": "<0xF7>", "1248": "<0xF8>", "1249": "<0xF9>", "1250": "<0xFA>", "1251": "<0xFB>", "1252": "<0xFC>", "1253": "<0xFD>", "1254": "<0xFE>", "1255": "<0xFF>", "1256": "  ", "1257": " t", "1258": "er", "1259": "in", "1260": "    ", "1261": " a", "1262": "en", "1263": "on", "1264": "es", "1265": " s", "1266": " d", "1267": "\n\n", "1268": "he", "1269": "at", "1270": "or", "1271": "an", "1272": " c", "1273": "re", "1274": " p", "1275": "is", "1276": "it", "1277": "ar", "1278": " the", "1279": "al", "1280": "ا", "1281": " o", "1282": "le", "1283": " m", "1284": " f", "1285": " w", "1286": "ed", "1287": "�", "1288": "as", "1289": " b", "1290": "ic", "1291": "ro", "1292": "ion", "1293": "   ", "1294": " in", "1295": " l", "1296": "�", "1297": "ent", "1298": "nd", "1299": "el", "1300": " �", "1301": "        ", "1302": "ing", "1303": "ل", "1304": "et", "1305": "ou", "1306": "�", "1307": " of", "1308": " n", "1309": " �", "1310": " h", "1311": " de", "1312": " |", "1313": "om", "1314": "st", "1315": "а", "1316": "ct", "1317": " to", "1318": "il", "1319": " (", "1320": "。", "1321": " and", "1322": " �", "1323": "о", "1324": " e", "1325": "am", "1326": " th", "1327": "id", "1328": "ur", "1329": "im", "1330": " v", "1331": "ch", "1332": "ad", "1333": " u", "1334": "е", "1335": " S", "1336": "ol", "1337": "é", "1338": ".\n\n", "1339": "ي", "1340": "�", "1341": "ut", "1342": "�", "1343": " g", "1344": " re", "1345": "ن", "1346": "os", "1347": "и", "1348": "qu", "1349": " A", "1350": "ال", "1351": "ig", "1352": "ر", "1353": " T", "1354": "iv", "1355": "。\n\n", "1356": "em", "1357": "ra", "1358": "##", "1359": " C", "1360": "ot", "1361": "т", "1362": " I", "1363": "н", "1364": " *", "1365": ";\n", "1366": "ul", "1367": "р", "1368": "ce", "1369": "       ", "1370": "ation", "1371": "م", "1372": "est", "1373": " M", "1374": "us", "1375": " ال", "1376": " =", "1377": "с", "1378": "ir", "1379": "�", "1380": "و", "1381": "�", "1382": " r", "1383": " con", "1384": "un", "1385": " �", "1386": "ie", "1387": "od", "1388": "ت", "1389": " st", "1390": " P", "1391": "if", "1392": "ow", "1393": "ag", "1394": " for", "1395": " is", "1396": "о�", "1397": "ter", "1398": " B", "1399": "د", "1400": "te", "1401": "ab", "1402": " be", "1403": "um", "1404": " y", "1405": "ly", "1406": "�", "1407": " D", "1408": " on", "1409": " k", "1410": " al", "1411": "th", "1412": " se", "1413": "ac", "1414": "”", "1415": "se", "1416": "ist", "1417": "ay", "1418": " en", "1419": "ate", "1420": " an", "1421": "and", "1422": "ه", "1423": "ess", "1424": " L", "1425": "ith", "1426": "�", "1427": " la", "1428": "ers", "1429": " \"", "1430": "av", "1431": " pro", "1432": "л", "1433": " �", "1434": " R", "1435": " as", "1436": " E", "1437": " com", "1438": "**", "1439": " F", "1440": "ا�", "1441": "ere", "1442": " qu", "1443": " H", "1444": "ri", "1445": " {", "1446": "pe", "1447": " �", "1448": "ة", "1449": "ort", "1450": "ant", "1451": "�", "1452": " wh", "1453": "oc", "1454": " with", "1455": " that", "1456": ")\n", "1457": " un", "1458": "\t\t", "1459": " le", "1460": "�", "1461": " G", "1462": " -", "1463": "           ", "1464": " N", "1465": "ver", "1466": "ap", "1467": "ی", "1468": ");\n", "1469": "�", "1470": " su", "1471": "’", "1472": "у", "1473": "�", "1474": "end", "1475": " j", "1476": "ment", "1477": " م", "1478": "ht", "1479": "our", "1480": " ex", "1481": "к", "1482": "“", "1483": " ال�", "1484": "op", "1485": "ia", "1486": " was", "1487": "�", "1488": " W", "1489": "ak", "1490": "art", "1491": "ction", "1492": " �", "1493": "ain", "1494": " it", "1495": " }", "1496": "�", "1497": "pl", "1498": "ue", "1499": "rom", "1500": "og", "1501": "ud", "1502": "á", "1503": "ass", "1504": " ne", "1505": " or", "1506": "ó", "1507": " J", "1508": "ب", "1509": "ame", "1510": "…", "1511": "в", "1512": " {\n", "1513": " at", "1514": " he", "1515": "pt", "1516": " و", "1517": " pr", "1518": "iz", "1519": "ine", "1520": ",\n", "1521": "ich", "1522": "ell", "1523": "ub", "1524": "port", "1525": "ill", "1526": "ق", "1527": "س", "1528": " ch", "1529": "í", "1530": "ع", "1531": " The", "1532": "ity", "1533": "ang", "1534": " <", "1535": " O", "1536": " by", "1537": "                ", "1538": "д", "1539": "ov", "1540": " �", "1541": "age", "1542": "�", "1543": "ld", "1544": " ب", "1545": "ans", "1546": "ne", "1547": " �", "1548": "」", "1549": "ure", "1550": " K", "1551": "ial", "1552": "ik", "1553": "pr", "1554": " z", "1555": "//", "1556": "ive", "1557": "ore", "1558": "de", "1559": "ك", "1560": " tr", "1561": ">\n", "1562": " from", "1563": " des", "1564": "ies", "1565": "м", "1566": "ف", "1567": "�", "1568": " et", "1569": "per", "1570": "я", "1571": "tr", "1572": " |\n", "1573": " cl", "1574": "),", "1575": "ber", "1576": " '", "1577": ").", "1578": " el", "1579": "ult", "1580": "ard", "1581": " V", "1582": " �", "1583": " �", "1584": " are", "1585": "ect", "1586": "ip", "1587": "年", "1588": " п", "1589": "�", "1590": "con", "1591": "ost", "1592": "ire", "1593": " this", "1594": "int", "1595": "###", "1596": "ա", "1597": "cl", "1598": "）", "1599": "all", "1600": "”\n\n", "1601": "،", "1602": " im", "1603": " **", "1604": "�", "1605": " not", "1606": "orm", "1607": "ы", "1608": " U", "1609": "ff", "1610": " res", "1611": "to", "1612": "ib", "1613": " que", "1614": " с", "1615": " pl", "1616": "ust", "1617": " \\", "1618": "rou", "1619": "ord", "1620": "ight", "1621": "ated", "1622": "=\"", "1623": " i", "1624": "ان", "1625": "，", "1626": ".\n", "1627": " sh", "1628": " أ", "1629": "ind", "1630": "ave", "1631": "ile", "1632": "�", "1633": "ata", "1634": "�", "1635": " par", "1636": " you", "1637": "xt", "1638": "able", "1639": " me", "1640": ";\n\n", "1641": "」\n\n", "1642": "ast", "1643": "ge", "1644": "�", "1645": "urn", "1646": "�", "1647": "ens", "1648": " ف", "1649": "ru", "1650": " us", "1651": " per", "1652": "     ", "1653": " do", "1654": "ä", "1655": "io", "1656": " In", "1657": "``", "1658": "ा", "1659": " $", "1660": "out", "1661": "ase", "1662": "ok", "1663": "ack", "1664": "ach", "1665": "ա�", "1666": "cc", "1667": "are", "1668": " в", "1669": "du", "1670": "++", "1671": "ü", "1672": "ve", "1673": " und", "1674": "—", "1675": "ide", "1676": "lic", "1677": "�", "1678": " cont", "1679": "act", "1680": "ould", "1681": "'s", "1682": "ath", "1683": " ad", "1684": "nt", "1685": "ical", "1686": " ar", "1687": "ient", "1688": "�", "1689": "get", "1690": "()", "1691": " comp", "1692": " н", "1693": " if", "1694": "               ", "1695": "pp", "1696": " �", "1697": "ont", "1698": " �", "1699": "ра", "1700": " �", "1701": "τ", "1702": "ice", "1703": "�", "1704": " Th", "1705": "ст", "1706": "ong", "1707": " ت", "1708": "ح", "1709": " est", "1710": " can", "1711": " ع", "1712": "ь", "1713": "α", "1714": "ign", "1715": " ab", "1716": "ng", "1717": "ition", "1718": "ous", "1719": "？", "1720": "ier", "1721": "ime", "1722": " were", "1723": "ph", "1724": "ob", "1725": "ο", "1726": "fer", "1727": "：", "1728": " der", "1729": " we", "1730": "com", "1731": " ل", "1732": "з", "1733": "ence", "1734": "ен", "1735": "月", "1736": " have", "1737": " :", "1738": "�", "1739": "다", "1740": "turn", "1741": "ance", "1742": "--", "1743": "……", "1744": "ج", "1745": " �", "1746": "_{", "1747": " all", "1748": " &", "1749": "、", "1750": " pre", "1751": "�", "1752": "ite", "1753": "і", "1754": "è", "1755": " à", "1756": " и", "1757": " St", "1758": "ک", "1759": " dis", "1760": "ary", "1761": "form", "1762": "�", "1763": "ll", "1764": "ى", "1765": " er", "1766": " [", "1767": "י", "1768": " ro", "1769": " �", "1770": "res", "1771": "ace", "1772": " di", "1773": "erv", "1774": "one", "1775": " –", "1776": "ار", "1777": " te", "1778": "so", "1779": "ι", "1780": "ı", "1781": "ther", "1782": " é", "1783": "ork", "1784": "The", "1785": "In", "1786": "au", "1787": "ية", "1788": "ió", "1789": "п", "1790": "ode", "1791": "..", "1792": "ö", "1793": "ов", "1794": " his", "1795": "ations", "1796": "(\"", "1797": "ו", "1798": "ome", "1799": " which", "1800": "ck", "1801": ")\n\n", "1802": "ч", "1803": "े", "1804": "me", "1805": " part", "1806": "ش", "1807": " del", "1808": "we", "1809": " but", "1810": " о", "1811": "ublic", "1812": "pon", "1813": "ement", "1814": "ert", "1815": "enc", "1816": "ah", "1817": " au", "1818": "（", "1819": " في", "1820": "र", "1821": "�", "1822": "ps", "1823": " es", "1824": "ions", "1825": "г", "1826": " }\n", "1827": " Ch", "1828": " die", "1829": "ype", "1830": "ual", "1831": "ma", "1832": "ات", "1833": "�", "1834": "gh", "1835": " к", "1836": " no", "1837": "che", "1838": "ν", "1839": "ors", "1840": " الم", "1841": "ple", "1842": "ose", "1843": " ob", "1844": "。\n", "1845": " class", "1846": "ft", "1847": "ан", "1848": " out", "1849": " les", "1850": " return", "1851": "ung", "1852": "ր", "1853": " her", "1854": "ory", "1855": " am", "1856": "이", "1857": "�", "1858": "�", "1859": "ari", "1860": "cre", "1861": "ait", "1862": "й", "1863": "는", "1864": " inter", "1865": "ject", "1866": "日", "1867": " +", "1868": "der", "1869": " من", "1870": "gr", "1871": " Re", "1872": "que", "1873": " em", "1874": " ي", "1875": " new", "1876": " д", "1877": ":\n", "1878": " so", "1879": "yst", "1880": " had", "1881": "б", "1882": "–", "1883": "vent", "1884": " du", "1885": "</", "1886": "ре", "1887": " sa", "1888": "elf", "1889": "rit", "1890": "ys", "1891": "्", "1892": "iss", "1893": "lect", "1894": " man", "1895": " //", "1896": "ط", "1897": "\",", "1898": "！", "1899": "vel", "1900": "her", "1901": "х", "1902": " на", "1903": "ε", "1904": "ear", "1905": "iew", "1906": "lo", "1907": "iel", "1908": "ific", "1909": "ו�", "1910": " د", "1911": "ian", "1912": "inal", "1913": ".s", "1914": " ma", "1915": " �", "1916": " val", "1917": "import", "1918": "\\)", "1919": "ո", "1920": "erm", "1921": "à", "1922": "：“", "1923": "ater", "1924": "és", "1925": " one", "1926": "ص", "1927": "own", "1928": "ام", "1929": "та", "1930": "்", "1931": "ran", "1932": "oll", "1933": "ها", "1934": " has", "1935": " int", "1936": "ug", "1937": "ener", "1938": "ry", "1939": "י�", "1940": "ç", "1941": "->", "1942": " sp", "1943": " �", "1944": "ely", "1945": " Y", "1946": "put", "1947": " «", "1948": "ex", "1949": "ount", "1950": "div", "1951": "Com", "1952": "^{", "1953": "。”\n\n", "1954": "�", "1955": "az", "1956": "ा�", "1957": " _", "1958": " sur", "1959": " ent", "1960": "ز", "1961": "خ", "1962": "을", "1963": "ión", "1964": "ри", "1965": "ke", "1966": "eth", "1967": "unction", "1968": "irst", "1969": "에", "1970": "led", "1971": "ц", "1972": "cri", "1973": "ين", "1974": " go", "1975": "```", "1976": "ρ", "1977": "val", "1978": "li", "1979": "aus", "1980": "ann", "1981": "لى", "1982": "up", "1983": "ese", "1984": " ag", "1985": "ick", "1986": "ail", "1987": " /", "1988": "од", "1989": "St", "1990": " lo", "1991": "ten", "1992": "»", "1993": "ade", "1994": "pro", "1995": " ass", "1996": " س", "1997": "ien", "1998": "ound", "1999": "ild", "2000": " `", "2001": " po", "2002": "}\n", "2003": "ep", "2004": "σ", "2005": " mod", "2006": "                   ", "2007": " \\(", "2008": " dif", "2009": " comm", "2010": "�", "2011": " str", "2012": " get", "2013": "les", "2014": "ied", "2015": " up", "2016": " set", "2017": "ock", "2018": " const", "2019": " ver", "2020": " إ", "2021": "('", "2022": " pos", "2023": "ents", "2024": "ол", "2025": "ec", "2026": "�", "2027": "на", "2028": "\t\t\t\t", "2029": "par", "2030": "{\n", "2031": "eng", "2032": "ew", "2033": "ize", "2034": " their", "2035": "clud", "2036": " my", "2037": "ystem", "2038": "ull", "2039": "ado", "2040": "్", "2041": "row", "2042": "und", "2043": "ij", "2044": " ن", "2045": "ada", "2046": " ك", "2047": "्�", "2048": " An", "2049": "ption", "2050": "ն", "2051": "ի", "2052": "�", "2053": "ss", "2054": "wo", "2055": "eg", "2056": "tring", "2057": "ե", "2058": " sc", "2059": "ark", "2060": "ли", "2061": " col", "2062": "pec", "2063": "ी", "2064": " }\n\n", "2065": " public", "2066": "ree", "2067": "া", "2068": "ale", "2069": "ि", "2070": " ph", "2071": " form", "2072": " tra", "2073": " ap", "2074": " ک", "2075": " reg", "2076": "те", "2077": "ink", "2078": " av", "2079": "اس", "2080": " �", "2081": " more", "2082": "ake", "2083": "ta", "2084": " will", "2085": "ə", "2086": " м", "2087": "ise", "2088": " bet", "2089": " vo", "2090": "�", "2091": "ни", "2092": "}\n\n", "2093": " ra", "2094": "emb", "2095": " also", "2096": "',", "2097": "ins", "2098": " क", "2099": "أ", "2100": ":\n\n", "2101": " il", "2102": " acc", "2103": "то", "2104": " б", "2105": "ла", "2106": "하", "2107": "ric", "2108": " act", "2109": " cons", "2110": " з", "2111": "ix", "2112": "ом", "2113": "ã", "2114": "ê", "2115": "ა", "2116": "();\n", "2117": "pect", "2118": " app", "2119": "fter", "2120": " �", "2121": " def", "2122": "ular", "2123": "�", "2124": " �", "2125": " los", "2126": " @", "2127": " they", "2128": "ш", "2129": " “", "2130": "ates", "2131": "ض", "2132": "tt", "2133": "「", "2134": " rec", "2135": " pe", "2136": " over", "2137": "ern", "2138": " ه", "2139": "ور", "2140": "ish", "2141": "anc", "2142": " time", "2143": " your", "2144": "cess", "2145": "ذ", "2146": "aj", "2147": " other", "2148": " trans", "2149": "text", "2150": "ike", "2151": " been", "2152": " rel", "2153": "*,", "2154": "ven", "2155": " sub", "2156": " there", "2157": " It", "2158": " first", "2159": " Un", "2160": " co", "2161": "pos", "2162": "ς", "2163": " Z", "2164": "::", "2165": " she", "2166": "ek", "2167": "র", "2168": " would", "2169": " ser", "2170": " da", "2171": "η", "2172": "π", "2173": " por", "2174": "ange", "2175": " г", "2176": " che", "2177": " �", "2178": "్�", "2179": " Al", "2180": ");\n\n", "2181": " data", "2182": " He", "2183": " ح", "2184": "str", "2185": "의", "2186": "let", "2187": "ings", "2188": " may", "2189": "old", "2190": "’s", "2191": "ск", "2192": "ون", "2193": "olog", "2194": " Ar", "2195": "app", "2196": " work", "2197": "اد", "2198": " ein", "2199": "�", "2200": " when", "2201": "ł", "2202": "ж", "2203": " into", "2204": "�", "2205": "ా", "2206": " ac", "2207": "ი", "2208": "ina", "2209": "but", "2210": " use", "2211": "ి", "2212": "υ", "2213": "ً", "2214": " pres", "2215": "�", "2216": " num", "2217": "ول", "2218": "ث", "2219": "�", "2220": " den", "2221": "mer", "2222": "্", "2223": " pol", "2224": " than", "2225": "lement", "2226": "고", "2227": "igh", "2228": "ог", "2229": " add", "2230": "arg", "2231": " stud", "2232": "ons", "2233": "eb", "2234": "ond", "2235": "ove", "2236": ".get", "2237": "�", "2238": " ق", "2239": "ि�", "2240": " ر", "2241": "\"\n", "2242": "ва", "2243": "ays", "2244": "ão", "2245": "ava", "2246": " its", "2247": " .", "2248": "�다", "2249": "yn", "2250": "         ", "2251": " —", "2252": " id", "2253": "ci", "2254": " function", "2255": "‌", "2256": " det", "2257": " �", "2258": " any", "2259": " </", "2260": "ю", "2261": "round", "2262": "ер", "2263": "ef", "2264": "ente", "2265": "��", "2266": "Name", "2267": "ée", "2268": "ble", "2269": " some", "2270": " gr", "2271": " bo", "2272": " Se", "2273": " dé", "2274": " who", "2275": " الأ", "2276": "ror", "2277": "ative", "2278": "اب", "2279": "oth", "2280": "atch", "2281": " cor", "2282": " result", "2283": "ating", "2284": " att", "2285": "atic", "2286": "ւ", "2287": " sign", "2288": "ं", "2289": "ased", "2290": "ে", "2291": "ray", "2292": " dem", "2293": "####", "2294": " kn", "2295": " two", "2296": "்�", "2297": " =>", "2298": " τ", "2299": "್", "2300": " dur", "2301": " Le", "2302": "na", "2303": "로", "2304": "ير", "2305": "し", "2306": "ton", "2307": "ield", "2308": "sp", "2309": " produ", "2310": " je", "2311": "Comment", "2312": "は", "2313": "ession", "2314": " about", "2315": " đ", "2316": "한", "2317": " op", "2318": "ти", "2319": "tern", "2320": "co", "2321": "ా�", "2322": "ér", "2323": "cond", "2324": "itt", "2325": "�", "2326": " bl", "2327": " fl", "2328": " aut", "2329": "ween", "2330": "ember", "2331": " una", "2332": " у", "2333": " ج", "2334": "но", "2335": "ict", "2336": " na", "2337": " fe", "2338": "red", "2339": " fil", "2340": "oy", "2341": "ა�", "2342": " only", "2343": "ze", "2344": " eff", "2345": "://", "2346": "ّ", "2347": " �", "2348": " ش", "2349": " differ", "2350": " pat", "2351": " ==", "2352": "be", "2353": "ía", "2354": ".com", "2355": "——", "2356": "ner", "2357": " rem", "2358": "ren", "2359": "uc", "2360": "ym", "2361": "ու", "2362": " end", "2363": "bo", "2364": "als", "2365": " min", "2366": "�", "2367": " dans", "2368": "。”", "2369": "지", "2370": "urr", "2371": " ke", "2372": "amp", "2373": "）\n", "2374": " tem", "2375": "��", "2376": " son", "2377": " أن", "2378": "ो", "2379": " para", "2380": "}\\", "2381": "š", "2382": " car", "2383": "its", "2384": "�", "2385": "가", "2386": "ui", "2387": "്", "2388": " pour", "2389": "�", "2390": "plic", "2391": "name", "2392": "ts", "2393": "い", "2394": "�", "2395": "ank", "2396": " between", "2397": "els", "2398": "urs", "2399": "uch", "2400": "そ", "2401": "rol", "2402": " includ", "2403": "ues", "2404": "ు", "2405": "'t", "2406": "Id", "2407": "と", "2408": "roup", "2409": " This", "2410": " sol", "2411": "ú", "2412": "ator", "2413": "�", "2414": " him", "2415": " une", "2416": "ible", "2417": " med", "2418": "gan", "2419": "κ", "2420": " prov", "2421": " von", "2422": "min", "2423": " الت", "2424": " them", "2425": " under", "2426": "ি", "2427": "ract", "2428": "ux", "2429": "た", "2430": " then", "2431": " Com", "2432": "land", "2433": "λ", "2434": " used", "2435": "은", "2436": "ser", "2437": "্�", "2438": "Th", "2439": "の", "2440": "hed", "2441": "ం", "2442": " inst", "2443": "wer", "2444": "fl", "2445": " si", "2446": " cre", "2447": "ethod", "2448": "ced", "2449": "ais", "2450": "ای", "2451": " Pro", "2452": "att", "2453": " after", "2454": "den", "2455": "ces", "2456": "ures", "2457": " 그", "2458": "ă", "2459": "ica", "2460": " x", "2461": "ר", "2462": "ger", "2463": "ка", "2464": "ai", "2465": "�", "2466": " Q", "2467": "�", "2468": "�", "2469": " cell", "2470": "া�", "2471": "une", "2472": "ages", "2473": " requ", "2474": "ー", "2475": "್�", "2476": "ats", "2477": " met", "2478": " where", "2479": " like", "2480": "_t", "2481": " could", "2482": "aut", "2483": "rough", "2484": " Mar", "2485": "न", "2486": "ան", "2487": "ally", "2488": " vari", "2489": " ext", "2490": " off", "2491": " De", "2492": "ј", "2493": "yp", "2494": " а", "2495": " ind", "2496": "this", "2497": "ны", "2498": "erson", "2499": "是", "2500": " sim", "2501": "گ", "2502": " spec", "2503": "ruct", "2504": "ause", "2505": " using", "2506": "ider", "2507": "ample", "2508": "ique", "2509": "ene", "2510": "ext", "2511": "air", "2512": "uss", "2513": " bu", "2514": "č", "2515": "ор", "2516": " such", "2517": " dist", "2518": "vo", "2519": ").\n\n", "2520": " dire", "2521": "htt", "2522": "�", "2523": "oh", "2524": "ί", "2525": "List", "2526": " وال", "2527": "ution", "2528": "                       ", "2529": "ollow", "2530": "ль", "2531": "po", "2532": "를", "2533": " loc", "2534": " need", "2535": "ational", "2536": "\t\t\t", "2537": " inv", "2538": "�", "2539": " mon", "2540": "�", "2541": " La", "2542": " gener", "2543": "��", "2544": "String", "2545": " %", "2546": "ž", "2547": "ower", "2548": "je", "2549": " what", "2550": " Wh", "2551": "hr", "2552": "ле", "2553": "-s", "2554": "uer", "2555": " за", "2556": " qui", "2557": "ility", "2558": "ature", "2559": "fore", "2560": "oci", "2561": "ole", "2562": "�", "2563": "��", "2564": " name", "2565": "reat", "2566": "്�", "2567": "ე", "2568": "�", "2569": " #", "2570": "Pro", "2571": "\">", "2572": "cent", "2573": "غ", "2574": "ando", "2575": "ars", "2576": " these", "2577": "ants", "2578": "ism", "2579": "，“", "2580": "\",\n", "2581": "か", "2582": " conf", "2583": "第", "2584": "la", "2585": " self", "2586": " just", "2587": " على", "2588": "ning", "2589": "amb", "2590": "Con", "2591": "**\n", "2592": "ür", "2593": " �", "2594": "μ", "2595": " back", "2596": "Re", "2597": " ve", "2598": "��", "2599": " �", "2600": "ş", "2601": " ed", "2602": "》", "2603": "add", "2604": ".p", "2605": "ument", "2606": " how", "2607": " don", "2608": "son", "2609": "----", "2610": "�", "2611": "ined", "2612": "�", "2613": ".\"", "2614": " �", "2615": " cal", "2616": ".j", "2617": "oun", "2618": " las", "2619": "ward", "2620": "ough", "2621": "ho", "2622": "क", "2623": " �", "2624": "ñ", "2625": "ени", "2626": " الع", "2627": "ל", "2628": " X", "2629": " show", "2630": "cho", "2631": "ë", "2632": " value", "2633": "read", "2634": "?\n\n", "2635": " mit", "2636": "�", "2637": " year", "2638": ".”\n\n", "2639": " said", "2640": "```\n", "2641": "ivers", "2642": "ود", "2643": " fr", "2644": "cept", "2645": " through", "2646": "rac", "2647": "ior", "2648": " ا�", "2649": "no", "2650": "に", "2651": "data", "2652": "�", "2653": "any", "2654": "ute", "2655": "ctions", "2656": ".l", "2657": "あ", "2658": " type", "2659": "ody", "2660": "�", "2661": "ой", "2662": " !", "2663": " system", "2664": " pas", "2665": "�", "2666": "う", "2667": " second", "2668": "}\\)", "2669": "ет", "2670": "لي", "2671": " import", "2672": "�", "2673": "cont", "2674": "�", "2675": "alse", "2676": "til", "2677": "rop", "2678": " ה�", "2679": "ervice", "2680": "ი�", "2681": " partic", "2682": "isch", "2683": "set", "2684": "ند", "2685": " follow", "2686": "ever", "2687": "？”\n\n", "2688": " test", "2689": " 이", "2690": " �", "2691": "اء", "2692": "ري", "2693": "ivate", "2694": "�", "2695": "urrent", "2696": "ato", "2697": " did", "2698": "’t", "2699": "uk", "2700": "ಿ", "2701": "で", "2702": "iver", "2703": "man", "2704": " van", "2705": "ás", "2706": "\">\n", "2707": "��", "2708": "col", "2709": "서", "2710": " sm", "2711": " по", "2712": "za", "2713": "的", "2714": "ό", "2715": " should", "2716": "ე�", "2717": "ics", "2718": "ро", "2719": "vi", "2720": "â", "2721": " cent", "2722": "ما", "2723": "ler", "2724": "ائ", "2725": " most", "2726": "да", "2727": "ست", "2728": "sk", "2729": "ni", "2730": " long", "2731": "```\n\n", "2732": " Con", "2733": " ter", "2734": " |\n\n", "2735": " cap", "2736": "ash", "2737": " bec", "2738": " high", "2739": "َ", "2740": " خ", "2741": "ribut", "2742": "ante", "2743": "ு", "2744": " each", "2745": " som", "2746": "리", "2747": "én", "2748": "ét", "2749": "ros", "2750": "ength", "2751": "fo", "2752": " ч", "2753": "ax", "2754": "ities", "2755": "elle", "2756": "-b", "2757": "It", "2758": "swer", "2759": "pres", "2760": "ty", "2761": "ación", "2762": "go", "2763": "Ex", "2764": " pass", "2765": "other", "2766": "─", "2767": " non", "2768": "な", "2769": "ி", "2770": "ited", "2771": " war", "2772": "velop", "2773": " स", "2774": ".m", "2775": "ư", "2776": "yl", "2777": "ու�", "2778": " final", "2779": "ized", "2780": "��", "2781": " ins", "2782": " number", "2783": "ines", "2784": "ral", "2785": "ου", "2786": " hand", "2787": "wn", "2788": " En", "2789": "ared", "2790": " again", "2791": "ponse", "2792": "{\\", "2793": "gen", "2794": "ER", "2795": " br", "2796": "ress", "2797": "ô", "2798": "))", "2799": "icht", "2800": " El", "2801": " different", "2802": "ি�", "2803": "å", "2804": "+++", "2805": "dd", "2806": " vers", "2807": "+++++", "2808": "っ", "2809": "ido", "2810": " char", "2811": "\":", "2812": "',\n", "2813": " As", "2814": "Ch", "2815": "View", "2816": " ré", "2817": " т", "2818": " void", "2819": "�", "2820": "]\n", "2821": "}}", "2822": "Cont", "2823": "त", "2824": "ե�", "2825": "ం�", "2826": "�", "2827": "说", "2828": "ask", "2829": " zu", "2830": " main", "2831": "ր�", "2832": " process", "2833": "ource", "2834": " ant", "2835": " men", "2836": " das", "2837": " We", "2838": "()\n", "2839": "line", "2840": " know", "2841": " var", "2842": " sup", "2843": " не", "2844": "atus", "2845": "Data", "2846": "ames", "2847": " ह", "2848": "-t", "2849": " else", "2850": "он", "2851": " effect", "2852": "pend", "2853": "\\(", "2854": "�", "2855": "án", "2856": " �", "2857": ".c", "2858": "iment", "2859": "essage", "2860": " como", "2861": "*\n", "2862": " point", "2863": "ά", "2864": " */", "2865": "abel", "2866": " method", "2867": "gg", "2868": "ane", "2869": " um", "2870": " vol", "2871": "\");\n", "2872": "roll", "2873": "ault", "2874": " �", "2875": " incre", "2876": " sl", "2877": "lich", "2878": " let", "2879": " same", "2880": "...", "2881": " در", "2882": "public", "2883": "yle", "2884": "ß", "2885": " dec", "2886": "very", "2887": "kt", "2888": "amil", "2889": "raph", "2890": "ி�", "2891": "gy", "2892": "To", "2893": "ą", "2894": "ère", "2895": "ру", "2896": "ци", "2897": "어", "2898": " For", "2899": "ظ", "2900": "ę", "2901": "era", "2902": "ful", "2903": " well", "2904": "ule", "2905": "work", "2906": "ium", "2907": "ott", "2908": "rc", "2909": "ision", "2910": " إلى", "2911": "En", "2912": "ara", "2913": "'\n", "2914": "inc", "2915": " pop", "2916": "ients", "2917": "self", "2918": "ON", "2919": " dev", "2920": "ン", "2921": "ulation", "2922": "ja", "2923": "است", "2924": "।", "2925": " true", "2926": "اع", "2927": "ron", "2928": "ett", "2929": "por", "2930": "ě", "2931": "لك", "2932": "ince", "2933": " want", "2934": "ico", "2935": "of", "2936": "�", "2937": " case", "2938": "view", "2939": "ired", "2940": "va", "2941": "wh", "2942": "lex", "2943": "ms", "2944": "ًا", "2945": " anal", "2946": "��", "2947": " fo", "2948": " our", "2949": "itle", "2950": "ayer", "2951": " list", "2952": " prote", "2953": "arget", "2954": "Type", "2955": "��", "2956": "ader", "2957": "ional", "2958": "sh", "2959": " found", "2960": " both", "2961": "ices", "2962": "도", "2963": "']", "2964": " prim", "2965": " person", "2966": "way", "2967": "�", "2968": "Cl", "2969": "ste", "2970": "bl", "2971": "《", "2972": " bel", "2973": "て", "2974": "quest", "2975": "for", "2976": "men", "2977": " mar", "2978": "math", "2979": "ے", "2980": "cript", "2981": "ically", "2982": " С", "2983": "으", "2984": " plus", "2985": " look", "2986": "gram", "2987": " auf", "2988": " present", "2989": " cr", "2990": " „", "2991": " poss", "2992": " ce", "2993": "ella", "2994": " Tr", "2995": "Ar", "2996": "pre", "2997": "اف", "2998": "在", "2999": "Val", "3000": " String", "3001": "date", "3002": "ka", "3003": " gu", "3004": "return", "3005": " Sch", "3006": " >", "3007": " ave", "3008": " gl", "3009": " post", "3010": "れ", "3011": "orld", "3012": "ま", "3013": "ви", "3014": " ét", "3015": "ote", "3016": " while", "3017": "ми", "3018": "ural", "3019": " الح", "3020": "ister", "3021": " Cl", "3022": "II", "3023": "�", "3024": "['", "3025": "omb", "3026": "aw", "3027": "ml", "3028": "-d", "3029": "ہ", "3030": " start", "3031": "ino", "3032": "ого", "3033": "ments", "3034": "ques", "3035": " cas", "3036": "imes", "3037": " inform", "3038": "use", "3039": " way", "3040": " म", "3041": "duct", "3042": "기", "3043": "ception", "3044": " sk", "3045": "ಿ�", "3046": " »", "3047": " dr", "3048": "щ", "3049": "-m", "3050": "ida", "3051": ".S", "3052": " (*", "3053": "स", "3054": "ople", "3055": "ು", "3056": "sch", "3057": "reg", "3058": "irc", "3059": "ся", "3060": " And", "3061": "وم", "3062": "ý", "3063": " آ", "3064": "igure", "3065": "Res", "3066": " before", "3067": " rest", "3068": "dex", "3069": "odel", "3070": "fe", "3071": "Col", "3072": "يد", "3073": " Sh", "3074": "ST", "3075": " How", "3076": " oper", "3077": "].", "3078": "ivity", "3079": " Ab", "3080": "new", "3081": " find", "3082": " ?", "3083": "ets", "3084": "ID", "3085": "vers", "3086": "ह", "3087": "一", "3088": "ana", "3089": " equ", "3090": " gen", "3091": "ма", "3092": "？」\n\n", "3093": "ery", "3094": " Be", "3095": "ved", "3096": "ks", "3097": "ores", "3098": " develop", "3099": "ura", "3100": "),\n", "3101": "ident", "3102": "ather", "3103": "ть", "3104": " tri", "3105": "ה", "3106": " quest", "3107": "==", "3108": "tain", "3109": ".,", "3110": " line", "3111": "itu", "3112": "ano", "3113": "ु", "3114": "об", "3115": "”，", "3116": " е", "3117": " 있", "3118": "�", "3119": " control", "3120": " does", "3121": " fact", "3122": " os", "3123": " art", "3124": "ife", "3125": "iter", "3126": "ament", "3127": " null", "3128": " ра", "3129": " hab", "3130": " hel", "3131": " exper", "3132": "だ", "3133": "acter", "3134": "_s", "3135": " */\n", "3136": "face", "3137": "ки", "3138": " به", "3139": "ados", "3140": " New", "3141": "ird", "3142": " perform", "3143": " \\(\\", "3144": " being", "3145": " real", "3146": "ason", "3147": " because", "3148": " term", "3149": "def", "3150": "const", "3151": " down", "3152": "eter", "3153": " �", "3154": " Pl", "3155": "ox", "3156": "ativ", "3157": "rem", "3158": " port", "3159": " descri", "3160": " run", "3161": "}^{", "3162": " الس", "3163": "不", "3164": "ouse", "3165": "             ", "3166": "ref", "3167": " private", "3168": "ero", "3169": " right", "3170": "agn", "3171": " vis", "3172": "�", "3173": "ca", "3174": "IN", "3175": ".f", "3176": "class", "3177": "enn", "3178": " level", "3179": "ios", "3180": " make", "3181": "={", "3182": "ccess", "3183": " mat", "3184": " during", "3185": "rag", "3186": "($", "3187": ".set", "3188": "هم", "3189": "��", "3190": "da", "3191": "vol", "3192": " В", "3193": " �", "3194": " ou", "3195": " ge", "3196": "لم", "3197": "leg", "3198": " fin", "3199": " even", "3200": " bre", "3201": "Se", "3202": "cul", "3203": " Ex", "3204": " group", "3205": "ified", "3206": "ender", "3207": "ght", "3208": "해", "3209": "ams", "3210": "Text", "3211": " प", "3212": " tot", "3213": " You", "3214": " made", "3215": "ди", "3216": " Pr", "3217": "-l", "3218": "hip", "3219": " see", "3220": "ಾ", "3221": " �", "3222": "اق", "3223": "ő", "3224": "ences", "3225": "�", "3226": " here", "3227": " П", "3228": "umn", "3229": "ization", "3230": "ha", "3231": " Il", "3232": " study", "3233": ".t", "3234": "lt", "3235": "ital", "3236": " direct", "3237": "Wh", "3238": "ör", "3239": "ок", "3240": "），", "3241": " σ", "3242": " α", "3243": " Er", "3244": " model", "3245": "over", "3246": " now", "3247": " Or", "3248": "ateg", "3249": " On", "3250": " tak", "3251": "NA", "3252": "lev", "3253": "ency", "3254": "ля", "3255": "ి�", "3256": ".d", "3257": "orn", "3258": "idth", "3259": " contin", "3260": "ар", "3261": " avec", "3262": "า", "3263": "user", "3264": " She", "3265": "the", "3266": " �", "3267": "ours", "3268": "lection", "3269": "ès", "3270": "게", "3271": "έ", "3272": "ř", "3273": "med", "3274": "ify", "3275": "ross", "3276": " false", "3277": "Le", "3278": "�", "3279": "                                ", "3280": "ு�", "3281": " се", "3282": "yd", "3283": " Ind", "3284": " hist", "3285": "br", "3286": " Par", "3287": "ually", "3288": "press", "3289": "ales", "3290": " �", "3291": "ité", "3292": " proble", "3293": "iet", "3294": "ω", "3295": " Br", "3296": "iven", "3297": "(\n", "3298": "\";\n", "3299": "https", "3300": " three", "3301": " الق", "3302": "�", "3303": " als", "3304": " مع", "3305": "ici", "3306": " people", "3307": "itions", "3308": "__", "3309": "idad", "3310": " string", "3311": " wur", "3312": "print", "3313": "AT", "3314": " ref", "3315": " much", "3316": " Is", "3317": "uro", "3318": ">\n\n", "3319": "ಾ�", "3320": " sich", "3321": "�", "3322": "が", "3323": " file", "3324": "�", "3325": " many", "3326": "by", "3327": " π", "3328": " cond", "3329": "pression", "3330": " user", "3331": "�", "3332": "part", "3333": "ting", "3334": " signific", "3335": "ção", "3336": " example", "3337": "не", "3338": " organ", "3339": " �", "3340": "ി", "3341": " �", "3342": "earch", "3343": "تر", "3344": "ille", "3345": "�", "3346": " read", "3347": "var", "3348": " ident", "3349": " event", "3350": "ర", "3351": " years", "3352": " try", "3353": "\tif", "3354": " play", "3355": " log", "3356": "arly", "3357": "ло", "3358": " patients", "3359": " 사", "3360": "اً", "3361": " mus", "3362": "ư�", "3363": " می", "3364": "�", "3365": "ains", "3366": " الب", "3367": " If", "3368": " mov", "3369": " consider", "3370": "ै", "3371": " commun", "3372": "ल", "3373": "ん", "3374": " prof", "3375": "γ", "3376": " cu", "3377": " Te", "3378": "play", "3379": "اح", "3380": " پ", "3381": " Fran", "3382": "hor", "3383": " κ", "3384": "_id", "3385": " those", "3386": "value", "3387": " every", "3388": "들", "3389": "во", "3390": "ette", "3391": "mi", "3392": "بر", "3393": "ת", "3394": "gu", "3395": " Car", "3396": "alk", "3397": "ione", "3398": " ret", "3399": " ann", "3400": " К", "3401": " hum", "3402": "ო", "3403": " text", "3404": "ُ", "3405": "人", "3406": "chn", "3407": "lected", "3408": "此", "3409": "ems", "3410": "も", "3411": "اه", "3412": " occ", "3413": " enc", "3414": "ena", "3415": "indow", "3416": "raw", "3417": " pu", "3418": " pot", "3419": "action", "3420": "ф", "3421": "-f", "3422": "ò", "3423": "().", "3424": "ito", "3425": "رب", "3426": "�", "3427": "ential", "3428": "ohn", "3429": "라", "3430": "serv", "3431": "�", "3432": " open", "3433": "frac", "3434": " Sp", "3435": " very", "3436": "ocument", "3437": "�", "3438": "td", "3439": " System", "3440": " الن", "3441": " mil", "3442": "ら", "3443": "«", "3444": " ist", "3445": "_l", "3446": "yt", "3447": "ани", "3448": "**\n\n", "3449": " struct", "3450": " Answer", "3451": " Col", "3452": "He", "3453": "La", "3454": "يل", "3455": ");", "3456": " fa", "3457": "amente", "3458": "unt", "3459": " cells", "3460": " от", "3461": "こ", "3462": "ées", "3463": " report", "3464": "alt", "3465": "bject", "3466": "ή", "3467": " program", "3468": " state", "3469": "lar", "3470": "ination", "3471": " support", "3472": " child", "3473": "ished", "3474": "ived", "3475": " code", "3476": "ئ", "3477": " كان", "3478": "fig", "3479": "erc", "3480": "_c", "3481": " object", "3482": " appro", "3483": "}{", "3484": "org", "3485": "ration", "3486": "rain", "3487": " sing", "3488": "عد", "3489": "arch", "3490": "ama", "3491": "ny", "3492": " 것", "3493": " },\n", "3494": "word", "3495": "alth", "3496": "де", "3497": "present", "3498": " mo", "3499": " bi", "3500": "？\n\n", "3501": " No", "3502": " ü", "3503": " famil", "3504": "tre", "3505": "ko", "3506": "ush", "3507": "bed", "3508": " help", "3509": "right", "3510": "า�", "3511": " لل", "3512": "ides", "3513": " л", "3514": "�", "3515": " serv", "3516": " mais", "3517": " ص", "3518": " head", "3519": " current", "3520": "zy", "3521": " М", "3522": "tion", "3523": "));\n", "3524": "mp", "3525": "म", "3526": "(f", "3527": " entre", "3528": " mult", "3529": "ission", "3530": "었다", "3531": " �", "3532": "aterial", "3533": "ense", "3534": " بال", "3535": " place", "3536": "ակ", "3537": "ita", "3538": "قد", "3539": "      ", "3540": "『", "3541": " word", "3542": " order", "3543": " expl", "3544": " �", "3545": "ে�", "3546": "）\n\n", "3547": " �", "3548": "』", "3549": " path", "3550": "으로", "3551": "رو", "3552": " الج", "3553": " ка", "3554": "ben", "3555": "plication", "3556": "nh", "3557": "_f", "3558": " aus", "3559": "ց", "3560": " best", "3561": "LE", "3562": "ż", "3563": "]\n\n", "3564": " Gr", "3565": "rist", "3566": "ey", "3567": " Ad", "3568": " arr", "3569": "ken", "3570": "order", "3571": " Ph", "3572": " lim", "3573": "ո�", "3574": "这", "3575": " bas", "3576": " при", "3577": "ga", "3578": " elect", "3579": " target", "3580": " orig", "3581": "back", "3582": " Je", "3583": "*.", "3584": " element", "3585": " Bl", "3586": "inter", "3587": "сти", "3588": "�", "3589": "                           ", "3590": ".A", "3591": "-c", "3592": "ording", "3593": " sus", "3594": "나", "3595": "ğ", "3596": ".g", "3597": " Amer", "3598": "ini", "3599": "ế", "3600": " sou", "3601": "cer", "3602": "_d", "3603": " \\\\", "3604": "itor", "3605": "],", "3606": "By", "3607": "string", "3608": " für", "3609": "RE", "3610": " год", "3611": "lete", "3612": "αι", "3613": "ко", "3614": "adi", "3615": " chang", "3616": " �", "3617": "Im", "3618": "�", "3619": " aff", "3620": "_m", "3621": "我", "3622": "�", "3623": "stand", "3624": "omen", "3625": "urther", "3626": " But", "3627": "ysis", "3628": ".h", "3629": " following", "3630": " pod", "3631": "ream", "3632": " redu", "3633": " dat", "3634": "ided", "3635": "Al", "3636": "isk", "3637": " still", "3638": "arr", "3639": " عن", "3640": "):\n", "3641": " Res", "3642": " ur", "3643": "ification", "3644": "aving", "3645": " rece", "3646": "？”", "3647": "ча", "3648": " think", "3649": " sch", "3650": "rm", "3651": "ness", "3652": "hib", "3653": " Qu", "3654": "px", "3655": "';\n", "3656": "elt", "3657": " results", "3658": "ager", "3659": "oj", "3660": "ذا", "3661": "ộ", "3662": "eta", "3663": "oint", "3664": " Me", "3665": " ב�", "3666": " memb", "3667": " mi", "3668": "roid", "3669": " og", "3670": "る", "3671": "ски", "3672": "xim", "3673": "ocial", "3674": "mit", "3675": " against", "3676": "uf", "3677": "****", "3678": "ology", "3679": " stand", "3680": "On", "3681": "iron", "3682": "ora", "3683": " good", "3684": "ples", "3685": " local", "3686": " information", "3687": " beh", "3688": "ем", "3689": " cle", "3690": " call", "3691": " div", "3692": "php", "3693": "ison", "3694": "rite", "3695": " vi", "3696": "�", "3697": "χ", "3698": "تم", "3699": "ین", "3700": "си", "3701": "ters", "3702": " mot", "3703": "�", "3704": "น", "3705": "ischen", "3706": "아", "3707": " dos", "3708": " 아", "3709": " small", "3710": "ות", "3711": " Ver", "3712": " ש", "3713": " meas", "3714": " Fr", "3715": "not", "3716": "ém", "3717": "�", "3718": "�", "3719": " view", "3720": " init", "3721": "Value", "3722": " conne", "3723": "ć", "3724": " disc", "3725": "إ", "3726": "ference", "3727": " field", "3728": "ista", "3729": " size", "3730": " There", "3731": "itive", "3732": "vious", "3733": ",”", "3734": " Die", "3735": " μ", "3736": " eine", "3737": "然", "3738": "ు�", "3739": "\treturn", "3740": " dom", "3741": "ves", "3742": "ists", "3743": "ume", "3744": " static", "3745": "ubl", "3746": " within", "3747": "ъ", "3748": " associ", "3749": "OR", "3750": " significant", "3751": " из", "3752": "zen", "3753": "ela", "3754": " own", "3755": "[i", "3756": "iones", "3757": "ki", "3758": "�", "3759": "인", "3760": "='", "3761": "De", "3762": "ா", "3763": " print", "3764": " nov", "3765": "ικ", "3766": "/m", "3767": "رد", "3768": "\")\n", "3769": "ends", "3770": "chool", "3771": "empl", "3772": "نا", "3773": "��", "3774": "ù", "3775": "်", "3776": "ో", "3777": " А", "3778": " inc", "3779": "gl", "3780": " mark", "3781": "ста", "3782": " �", "3783": "arge", "3784": " об", "3785": "��", "3786": "\\({", "3787": " 수", "3788": " total", "3789": "եր", "3790": " 하", "3791": "_p", "3792": " Am", "3793": "ood", "3794": "ude", "3795": ":**", "3796": " ל", "3797": " All", "3798": "оз", "3799": " qual", "3800": "come", "3801": " het", "3802": "arm", "3803": "他", "3804": " last", "3805": "ạ", "3806": "्र", "3807": "сь", "3808": "mente", "3809": "http", "3810": "oss", "3811": " diff", "3812": " الإ", "3813": "ives", "3814": "Par", "3815": "ים", "3816": " without", "3817": "}\n\n\n", "3818": "ო�", "3819": "―", "3820": " lead", "3821": "Tr", "3822": "ೆ", "3823": " leg", "3824": "))\n", "3825": " US", "3826": "/s", "3827": " wer", "3828": " ε", "3829": " ط", "3830": " comb", "3831": " care", "3832": "ige", "3833": "ве", "3834": " va", "3835": "�", "3836": "كن", "3837": "ww", "3838": "igen", "3839": "ên", "3840": "}_{", "3841": " opt", "3842": " fre", "3843": "iod", "3844": " key", "3845": " از", "3846": "do", "3847": " determ", "3848": "(s", "3849": " mu", "3850": "ability", "3851": " cou", "3852": " dou", "3853": "از", "3854": " prom", "3855": " nh", "3856": "ustom", "3857": " inf", "3858": " sie", "3859": "Er", "3860": "jor", "3861": "pi", "3862": "ots", "3863": "ル", "3864": "];\n", "3865": "ival", "3866": " another", "3867": " cour", "3868": "）、", "3869": "pond", "3870": " To", "3871": "\".", "3872": "ож", "3873": "от", "3874": "에서", "3875": " proper", "3876": " arg", "3877": "Un", "3878": " super", "3879": " around", "3880": " error", "3881": "zt", "3882": "�", "3883": " Ro", "3884": " turn", "3885": "！”\n\n", "3886": " However", "3887": " ذ", "3888": "ati", "3889": " li", "3890": "But", "3891": "ா�", "3892": "key", "3893": "vert", "3894": " allow", "3895": "──", "3896": " است", "3897": " ,", "3898": " appe", "3899": "clude", "3900": "ി�", "3901": " &&", "3902": "ё", "3903": "ın", "3904": "ít", "3905": "AR", "3906": "State", "3907": " including", "3908": "ύ", "3909": " od", "3910": "ograph", "3911": "cle", "3912": "مل", "3913": " ж", "3914": "ś", "3915": "чи", "3916": "endo", "3917": " indic", "3918": " imp", "3919": " sem", "3920": " dan", "3921": " الش", "3922": "א", "3923": "ively", "3924": "ня", "3925": " mak", "3926": " ф", "3927": " observ", "3928": "��", "3929": "ently", "3930": " come", "3931": " At", "3932": "SE", "3933": "my", "3934": "rel", "3935": " product", "3936": " design", "3937": " image", "3938": "ス", "3939": " seg", "3940": " ev", "3941": " ا", "3942": " !=", "3943": " ای", "3944": " ha", "3945": " respect", "3946": " four", "3947": "bar", "3948": " الد", "3949": "ры", "3950": " day", "3951": "자", "3952": " lui", "3953": "try", "3954": "bum", "3955": "يم", "3956": "iving", "3957": "حد", "3958": " wurde", "3959": "في", "3960": " ко", "3961": " א", "3962": "ilar", "3963": "ende", "3964": " due", "3965": " tro", "3966": " sont", "3967": "left", "3968": "رة", "3969": "اج", "3970": "load", "3971": "){\n", "3972": " �", "3973": "ormal", "3974": "umber", "3975": "ón", "3976": "orth", "3977": " top", "3978": "net", "3979": " left", "3980": " position", "3981": "roller", "3982": " та", "3983": "ones", "3984": "�", "3985": "시", "3986": " John", "3987": " Н", "3988": " addition", "3989": "：\n\n", "3990": "�", "3991": "bu", "3992": " old", "3993": "ief", "3994": "ypes", "3995": " ste", "3996": "以", "3997": " ", "3998": " polit", "3999": "Item", "4000": "--------", "4001": "э", "4002": "erg", "4003": "ially", "4004": "ately", "4005": " response", "4006": " ide", "4007": "ables", "4008": "param", "4009": "ffer", "4010": " Pol", "4011": "ras", "4012": " cert", "4013": "õ", "4014": " count", "4015": "](", "4016": " must", "4017": "bert", "4018": "че", "4019": "User", "4020": " treat", "4021": "arn", "4022": "时", "4023": " important", "4024": "ury", "4025": " later", "4026": "ร", "4027": "span", "4028": "ته", "4029": " href", "4030": "unc", "4031": "lease", "4032": "af", "4033": " era", "4034": ".st", "4035": "vern", "4036": " change", "4037": "ua", "4038": " cult", "4039": "(t", "4040": " sens", "4041": " nicht", "4042": " ja", "4043": ".\"\n\n", "4044": " بر", "4045": " Im", "4046": "ook", "4047": " emb", "4048": " 가", "4049": "Time", "4050": "、「", "4051": "An", "4052": "éd", "4053": " power", "4054": "../", "4055": " Est", "4056": "”。", "4057": " based", "4058": "ards", "4059": "се", "4060": "وس", "4061": "CT", "4062": "Object", "4063": "ackage", "4064": "ова", "4065": " пре", "4066": "�", "4067": " java", "4068": "ार", "4069": " take", "4070": "ases", "4071": "ു", "4072": "As", "4073": "itch", "4074": " sugg", "4075": "δ", "4076": " film", "4077": "ali", "4078": "！」\n\n", "4079": "icon", "4080": "��", "4081": "át", "4082": "input", "4083": "ift", "4084": "……」\n\n", "4085": " Ge", "4086": "ন", "4087": " circ", "4088": " �", "4089": " indiv", "4090": "incip", "4091": "err", "4092": " pred", "4093": "ø", "4094": " ·", "4095": " sam", "4096": "idual", "4097": " Univers", "4098": " question", "4099": "ರ", "4100": " ज", "4101": " src", "4102": " бы", "4103": "ething", "4104": " الف", "4105": " 대", "4106": "ku", "4107": " ब", "4108": " sent", "4109": " prop", "4110": "ily", "4111": "ites", "4112": " az", "4113": "ին", "4114": "ining", "4115": "ում", "4116": " fac", "4117": " infl", "4118": "ably", "4119": " eng", "4120": " mem", "4121": " II", "4122": " Su", "4123": " Man", "4124": "년", "4125": "using", "4126": "）。", "4127": " problem", "4128": " suggest", "4129": " life", "4130": "్ర", "4131": "hel", "4132": " ان", "4133": " represent", "4134": " adv", "4135": " pri", "4136": " since", "4137": " �", "4138": " dest", "4139": " might", "4140": " ј", "4141": "éc", "4142": "ի�", "4143": " أو", "4144": "arl", "4145": " character", "4146": "ges", "4147": "Get", "4148": " न", "4149": "�়", "4150": " say", "4151": "i�", "4152": "Exception", "4153": " hat", "4154": " más", "4155": " sever", "4156": "え", "4157": "item", "4158": "ní", "4159": " They", "4160": " conc", "4161": "ector", "4162": " ‘", "4163": " bro", "4164": " cho", "4165": " τη", "4166": " spe", "4167": " Sc", "4168": "El", "4169": "*\n\n", "4170": "ме", "4171": " possible", "4172": "ley", "4173": " э", "4174": " gre", "4175": "го", "4176": " Fl", "4177": " ز", "4178": "urch", "4179": "},", "4180": " water", "4181": "ican", "4182": "ala", "4183": "ih", "4184": "면", "4185": ".e", "4186": " grand", "4187": "を", "4188": "ें", "4189": "ways", "4190": "index", "4191": "ima", "4192": " ما", "4193": "ದ", "4194": "ils", "4195": " env", "4196": "cted", "4197": "embre", "4198": " հ", "4199": " про", "4200": " Б", "4201": " غ", "4202": "cha", "4203": " af", "4204": " mean", "4205": " الذ", "4206": " check", "4207": "յ", "4208": " ih", "4209": " expect", "4210": "ég", "4211": "�", "4212": " body", "4213": " values", "4214": "。“", "4215": "sole", "4216": " gra", "4217": " ses", "4218": " record", "4219": "abl", "4220": "ș", "4221": "ried", "4222": "ira", "4223": "ured", "4224": "ploy", "4225": ",\"", "4226": "�", "4227": " {\n\n", "4228": "off", "4229": " org", "4230": "נ", "4231": " contain", "4232": " activ", "4233": "uel", "4234": " table", "4235": "ires", "4236": " stat", "4237": " ask", "4238": "aim", "4239": " да", "4240": " exp", "4241": "！\n\n", "4242": "ention", "4243": "لا", "4244": "):", "4245": " iss", "4246": " mill", "4247": " và", "4248": "ả", "4249": " single", "4250": " sw", "4251": "！”", "4252": "�", "4253": " low", "4254": " --", "4255": "obre", "4256": "');\n", "4257": " �", "4258": " side", "4259": " success", "4260": "оп", "4261": "այ", "4262": "而", "4263": "ya", "4264": " invest", "4265": " given", "4266": " bar", "4267": "��", "4268": "We", "4269": "iste", "4270": "ought", "4271": "Service", "4272": "من", "4273": " mom", "4274": " net", "4275": " next", "4276": "ario", "4277": "ocal", "4278": "aba", "4279": " period", "4280": "mon", "4281": "ised", "4282": "aux", "4283": " put", "4284": " Eng", "4285": " Ste", "4286": "AL", "4287": "عة", "4288": "pons", "4289": " less", "4290": "SS", "4291": " coun", "4292": " input", "4293": "cia", "4294": " व", "4295": " ;", "4296": "iam", "4297": ".add", "4298": " mor", "4299": " Д", "4300": "和", "4301": "pu", "4302": "uit", "4303": "log", "4304": " world", "4305": " create", "4306": " के", "4307": "uring", "4308": " aw", "4309": "за", "4310": "include", "4311": "aint", "4312": "iled", "4313": "ria", "4314": "ret", "4315": " Jul", "4316": "ту", "4317": " build", "4318": " material", "4319": " analysis", "4320": "mes", "4321": "ET", "4322": "ili", "4323": " break", "4324": " á", "4325": " és", "4326": " shown", "4327": "eder", "4328": "Ind", "4329": " large", "4330": " intern", "4331": " sz", "4332": "्य", "4333": " מ�", "4334": "Form", "4335": " exist", "4336": "icro", "4337": " Reg", "4338": "り", "4339": "atal", "4340": " param", "4341": "مر", "4342": ").\n", "4343": "�", "4344": "[]", "4345": " nach", "4346": " social", "4347": " الك", "4348": " التي", "4349": "ische", "4350": " अ", "4351": "IG", "4352": " general", "4353": "();\n\n", "4354": " tre", "4355": "сп", "4356": "оль", "4357": " caus", "4358": ".C", "4359": "ety", "4360": "ete", "4361": " ten", "4362": " cost", "4363": "�", "4364": "ttp", "4365": "만", "4366": "‌ها", "4367": " q", "4368": "θ", "4369": " particular", "4370": " )", "4371": "*)", "4372": "°", "4373": " sal", "4374": "rame", "4375": "jo", "4376": " lang", "4377": "inn", "4378": "amm", "4379": "ither", "4380": "This", "4381": " writ", "4382": " too", "4383": "га", "4384": " inte", "4385": "ِ", "4386": "ittle", "4387": " neg", "4388": " beg", "4389": " kon", "4390": "τα", "4391": " light", "4392": "中", "4393": "For", "4394": " ре", "4395": " match", "4396": " Ed", "4397": "är", "4398": " �", "4399": "ț", "4400": "بي", "4401": "న", "4402": "ba", "4403": " least", "4404": " crit", "4405": "ground", "4406": "스", "4407": "icle", "4408": " ol", "4409": "ias", "4410": "\"\n\n", "4411": "ர", "4412": " है", "4413": "ב", "4414": " Gu", "4415": "ну", "4416": "irm", "4417": "test", "4418": " called", "4419": "ք", "4420": "ological", "4421": "oph", "4422": " princip", "4423": "Or", "4424": "ں", "4425": " Can", "4426": " �", "4427": "ula", "4428": "\")", "4429": "aron", "4430": "rap", "4431": " pa", "4432": " een", "4433": " something", "4434": "ủ", "4435": "aster", "4436": "ede", "4437": "�", "4438": " press", "4439": "ग", "4440": " document", "4441": " techn", "4442": " bus", "4443": "._", "4444": "Pl", "4445": "上", "4446": "ances", "4447": " vir", "4448": " الر", "4449": " 나", "4450": "ache", "4451": "ements", "4452": "Man", "4453": " style", "4454": " May", "4455": " above", "4456": "EN", "4457": " area", "4458": "osed", "4459": " trad", "4460": " array", "4461": "ാ", "4462": " де", "4463": "す", "4464": "ti", "4465": "rix", "4466": "چ", "4467": " bir", "4468": "></", "4469": " base", "4470": " aux", "4471": "ands", "4472": " Des", "4473": " Per", "4474": " Cent", "4475": "ched", "4476": " continu", "4477": "ience", "4478": " compon", "4479": ".”", "4480": " abs", "4481": "usion", "4482": "ayout", "4483": "ू", "4484": "conom", "4485": "ー�", "4486": "प", "4487": " tu", "4488": "ride", "4489": " particip", "4490": "ahr", "4491": "ban", "4492": " grow", "4493": " So", "4494": " ey", "4495": " grou", "4496": "abor", "4497": "ố", "4498": "お", "4499": "イ", "4500": "رف", "4501": "ries", "4502": "urg", "4503": " human", "4504": "ona", "4505": " fut", "4506": " я", "4507": "Error", "4508": "ponent", "4509": ".w", "4510": " similar", "4511": "�", "4512": " sein", "4513": "mun", "4514": " further", "4515": " Part", "4516": " द", "4517": " few", "4518": " ", "4519": "outh", "4520": "ador", "4521": " range", "4522": "�", "4523": "เ", "4524": " cur", "4525": "'m", "4526": "cal", "4527": "less", "4528": "وق", "4529": " گ", "4530": "لة", "4531": " uma", "4532": "cription", "4533": "يس", "4534": " prob", "4535": "ის", "4536": "zo", "4537": "kan", "4538": " Pa", "4539": " depend", "4540": "ку", "4541": "File", "4542": " Р", "4543": "thing", "4544": "ules", "4545": "如", "4546": " request", "4547": "ā", "4548": "ious", "4549": "iles", "4550": "':", "4551": "Bu", "4552": " won", "4553": "�", "4554": "());\n", "4555": "iness", "4556": " sum", "4557": "idence", "4558": " color", "4559": "φ", "4560": "adas", "4561": "och", "4562": "though", "4563": "ার", "4564": "((", "4565": "stit", "4566": " default", "4567": " 다", "4568": "You", "4569": " dies", "4570": " until", "4571": " Nov", "4572": "니", "4573": "�", "4574": "ension", "4575": "bol", "4576": "')", "4577": " Stad", "4578": " della", "4579": " Ser", "4580": "ש", "4581": "，”", "4582": "ffic", "4583": " having", "4584": " Т", "4585": " situ", "4586": " пр", "4587": ".b", "4588": " î", "4589": " ir", "4590": " home", "4591": "mod", "4592": "vention", "4593": "ια", "4594": "ourn", "4595": "-p", "4596": " 자", "4597": " individual", "4598": "_C", "4599": " 지", "4600": "bb", "4601": " project", "4602": " tou", "4603": "encia", "4604": "ling", "4605": " О", "4606": "zi", "4607": " previous", "4608": "်�", "4609": "ungen", "4610": " hom", "4611": "ד", "4612": " health", "4613": " од", "4614": "UL", "4615": "')\n", "4616": " major", "4617": "ails", "4618": " original", "4619": " mes", "4620": "과", "4621": " لا", "4622": " link", "4623": " Aug", "4624": "ál", "4625": " ben", "4626": " include", "4627": "տ", "4628": " Jan", "4629": " known", "4630": "error", "4631": " several", "4632": "pen", "4633": "대", "4634": " These", "4635": " ess", "4636": " compr", "4637": " govern", "4638": "Date", "4639": " bes", "4640": " kh", "4641": " 말", "4642": " comme", "4643": "day", "4644": "يا", "4645": "Event", "4646": "_name", "4647": "اط", "4648": " <<", "4649": "ailable", "4650": " ث", "4651": "[\"", "4652": " Christ", "4653": " ی", "4654": " те", "4655": " invol", "4656": " treatment", "4657": " الص", "4658": "व", "4659": "ു�", "4660": "��", "4661": " km", "4662": " во", "4663": "igher", "4664": " É", "4665": "ác", "4666": " studies", "4667": "وج", "4668": "All", "4669": " population", "4670": " going", "4671": " Ne", "4672": "})", "4673": "有", "4674": "أن", "4675": " pi", "4676": " الخ", "4677": "aps", "4678": "�", "4679": "acc", "4680": "ync", "4681": "ored", "4682": " Em", "4683": " ep", "4684": " ng", "4685": "�", "4686": "��", "4687": "했다", "4688": "\n\n\n", "4689": "urope", "4690": " elle", "4691": " surface", "4692": "init", "4693": "-ch", "4694": " ప", "4695": " util", "4696": "-se", "4697": "ych", "4698": "�", "4699": "Element", "4700": ".M", "4701": " content", "4702": "oman", "4703": "ար", "4704": "\tpublic", "4705": "خر", "4706": "loat", "4707": "ald", "4708": " که", "4709": "}(", "4710": " über", "4711": "ア", "4712": " του", "4713": "atter", "4714": "قة", "4715": "î", "4716": "ended", "4717": "ources", "4718": "ા", "4719": "met", "4720": " і", "4721": " kom", "4722": "rid", "4723": " է", "4724": " larg", "4725": " dise", "4726": "ши", "4727": " Ass", "4728": "ades", "4729": " sym", "4730": " fem", "4731": " access", "4732": "ја", "4733": " ele", "4734": "但", "4735": " moment", "4736": " impro", "4737": "اش", "4738": "后", "4739": "ั", "4740": " Mon", "4741": "irect", "4742": " auch", "4743": "ii", "4744": " ho", "4745": "적", "4746": "void", "4747": " whe", "4748": " �", "4749": "#include", "4750": "opt", "4751": "                 ", "4752": " Les", "4753": "No", "4754": "html", "4755": "RO", "4756": "Key", "4757": "�", "4758": " sec", "4759": "él", "4760": "ీ", "4761": "wa", "4762": "=\\", "4763": " anim", "4764": " х", "4765": "ql", "4766": "رك", "4767": " deux", "4768": " lib", "4769": " alg", "4770": "عل", "4771": " require", "4772": " never", "4773": " mal", "4774": "ώ", "4775": " је", "4776": " ú", "4777": " plan", "4778": "IT", "4779": "อ", "4780": "ை", "4781": "Info", "4782": ".log", "4783": "'un", "4784": "وب", "4785": "ì", "4786": "》，", "4787": "creen", "4788": " face", "4789": "்க", "4790": "(x", "4791": " вы", "4792": "chan", "4793": "atures", "4794": "վ", "4795": "mail", "4796": "file", "4797": "ু", "4798": " title", "4799": "リ", "4800": " obtain", "4801": " temper", "4802": " hal", "4803": "än", "4804": " red", "4805": "utes", "4806": " 한", "4807": "ids", "4808": "ؤ", "4809": "క", "4810": " service", "4811": " specific", "4812": "><", "4813": "러", "4814": " didn", "4815": "andom", "4816": "                               ", "4817": " camp", "4818": " expression", "4819": " week", "4820": "_{\\", "4821": "sc", "4822": "ika", "4823": "oad", "4824": " great", "4825": ".js", "4826": "mand", "4827": "それ", "4828": "ذه", "4829": "tn", "4830": "сто", "4831": " amb", "4832": " answer", "4833": "ów", "4834": "ories", "4835": "το", "4836": "了", "4837": " along", "4838": "rie", "4839": "\t\t\t\t\t", "4840": "rodu", "4841": "aces", "4842": "anto", "4843": " 일", "4844": " Bar", "4845": "sum", "4846": " sat", "4847": " è", "4848": " output", "4849": "eters", "4850": "App", "4851": "apt", "4852": " 시", "4853": " higher", "4854": "са", "4855": "depend", "4856": " contr", "4857": " United", "4858": "�", "4859": " са", "4860": "ാ�", "4861": "ön", "4862": "ivo", "4863": "plement", "4864": " air", "4865": "export", "4866": " لم", "4867": "ilt", "4868": "ready", "4869": " الل", "4870": "stract", "4871": " 기", "4872": " р", "4873": "box", "4874": "ün", "4875": "道", "4876": "ln", "4877": "зи", "4878": " common", "4879": " Med", "4880": "oot", "4881": "일", "4882": " Val", "4883": "_n", "4884": " got", "4885": "ogn", "4886": " eas", "4887": "ấ", "4888": "vis", "4889": "oper", "4890": " My", "4891": " index", "4892": "uration", "4893": " �", "4894": "द", "4895": " om", "4896": " happ", "4897": "ח", "4898": "��", "4899": " স", "4900": " development", "4901": "�", "4902": " со", "4903": "lick", "4904": "kl", "4905": "وا", "4906": " ->", "4907": "كان", "4908": "اص", "4909": " research", "4910": "idd", "4911": "த", "4912": " concent", "4913": " fran", "4914": " thought", "4915": " ст", "4916": "ری", "4917": " month", "4918": " bis", "4919": "ony", "4920": " interest", "4921": "iro", "4922": "Test", "4923": " Г", "4924": " fue", "4925": " When", "4926": "rect", "4927": "因", "4928": "さ", "4929": " yang", "4930": "ні", "4931": " �", "4932": "aff", "4933": "older", "4934": " role", "4935": " rad", "4936": "Model", "4937": " ма", "4938": " means", "4939": "ump", "4940": "iff", "4941": "bre", "4942": " better", "4943": " 보", "4944": "Table", "4945": " little", "4946": " separ", "4947": "па", "4948": "ني", "4949": "��", "4950": " block", "4951": "Button", "4952": "։", "4953": " lower", "4954": "ере", "4955": " far", "4956": "เ�", "4957": "valu", "4958": " short", "4959": " 않", "4960": "্র", "4961": " iz", "4962": " pap", "4963": " associated", "4964": "\"]", "4965": "etic", "4966": " phys", "4967": "Request", "4968": " device", "4969": "wards", "4970": "odes", "4971": " Will", "4972": " pract", "4973": " Her", "4974": " children", "4975": "ao", "4976": "来", "4977": " �", "4978": " book", "4979": "その", "4980": "minist", "4981": "uter", "4982": "Set", "4983": " claim", "4984": " ш", "4985": "ogen", "4986": "�", "4987": " signal", "4988": " Cont", "4989": " complet", "4990": "(n", "4991": " version", "4992": " �", "4993": "empt", "4994": "type", "4995": " team", "4996": " exam", "4997": "ako", "4998": "And", "4999": "Log", "5000": " र", "5001": "사", "5002": " among", "5003": " déc", "5004": "่", "5005": " до", "5006": " ल", "5007": "ду", "5008": " స", "5009": "abil", "5010": "AN", "5011": "from", "5012": "ân", "5013": "して", "5014": "img", "5015": "ises", "5016": "opy", "5017": "ideo", "5018": "ironment", "5019": " ill", "5020": "分", "5021": "同", "5022": " android", "5023": " pers", "5024": "(self", "5025": " espec", "5026": " �", "5027": "ే", "5028": " క", "5029": " certain", "5030": "atory", "5031": " ক", "5032": "ster", "5033": " rate", "5034": "ained", "5035": "ար�", "5036": "-M", "5037": "hem", "5038": "SB", "5039": " �", "5040": "мен", "5041": " sequ", "5042": " esc", "5043": " sil", "5044": "ել", "5045": "；", "5046": " West", "5047": "Color", "5048": " understand", "5049": " ot", "5050": " relations", "5051": " nat", "5052": " za", "5053": "url", "5054": "۱", "5055": " described", "5056": " त", "5057": "rug", "5058": "بل", "5059": " via", "5060": "�", "5061": "mission", "5062": " });\n", "5063": "icult", "5064": "پ", "5065": " उ", "5066": "ения", "5067": "ombre", "5068": "ties", "5069": "osition", "5070": " Cor", "5071": "ವ", "5072": " days", "5073": " mag", "5074": " required", "5075": " respons", "5076": "abase", "5077": "iy", "5078": "سب", "5079": " game", "5080": "pha", "5081": "ನ", "5082": "Field", "5083": " able", "5084": "Map", "5085": "gress", "5086": "ptember", "5087": "ερ", "5088": "DE", "5089": "よ", "5090": " school", "5091": "ising", "5092": " Aust", "5093": "egin", "5094": "util", "5095": "Sh", "5096": " ו", "5097": " solution", "5098": "ême", "5099": "تي", "5100": " display", "5101": " Min", "5102": " �", "5103": "_st", "5104": "ει", "5105": "ät", "5106": "τη", "5107": " ren", "5108": "iem", "5109": " away", "5110": " ang", "5111": "С", "5112": " cy", "5113": "пи", "5114": "Context", "5115": "や", "5116": "ови", "5117": " message", "5118": "ده", "5119": "PI", "5120": "から", "5121": "bit", "5122": "�", "5123": "ocation", "5124": " early", "5125": " approach", "5126": "ION", "5127": " );\n", "5128": " age", "5129": "�", "5130": "uth", "5131": "pring", "5132": " hard", "5133": "result", "5134": " را", "5135": " family", "5136": "bs", "5137": "요", "5138": " according", "5139": " là", "5140": "button", "5141": "ств", "5142": "pa", "5143": " tout", "5144": " lik", "5145": "్య", "5146": " nom", "5147": " και", "5148": "unk", "5149": " ut", "5150": " American", "5151": " San", "5152": " York", "5153": " often", "5154": "ї", "5155": " sobre", "5156": "obal", "5157": "ը", "5158": "imin", "5159": " ||", "5160": "そう", "5161": "sequ", "5162": "Of", "5163": " supp", "5164": "(c", "5165": "function", "5166": "лу", "5167": " Apr", "5168": "-y", "5169": " alt", "5170": " Ant", "5171": "thers", "5172": "osp", "5173": "aring", "5174": " load", "5175": "�", "5176": "zer", "5177": " activity", "5178": " available", "5179": " Ang", "5180": "ME", "5181": "تب", "5182": " network", "5183": "ক", "5184": "head", "5185": "rt", "5186": " sort", "5187": " August", "5188": "�", "5189": " University", "5190": "jet", "5191": "ola", "5192": "icial", "5193": "AC", "5194": " structure", "5195": " το", "5196": " մ", "5197": "len", "5198": "Path", "5199": "agement", "5200": " groups", "5201": "در", "5202": "ori", "5203": ".)", "5204": "�", "5205": "-in", "5206": "cz", "5207": "trans", "5208": "oria", "5209": " frequ", "5210": " में", "5211": " source", "5212": " durch", "5213": " times", "5214": " 없", "5215": " vor", "5216": " command", "5217": ",\\", "5218": "lood", "5219": " mut", "5220": " pel", "5221": "장", "5222": " প", "5223": "cht", "5224": "ategory", "5225": "ậ", "5226": ".D", "5227": "antes", "5228": " Intern", "5229": " gi", "5230": "ק", "5231": " $\\", "5232": "ान", "5233": " ö", "5234": " provide", "5235": " sin", "5236": "「……", "5237": " reported", "5238": "Over", "5239": "(m", "5240": "Pr", "5241": "apter", "5242": "Class", "5243": "-g", "5244": " took", "5245": "acy", "5246": " fait", "5247": " List", "5248": "Int", "5249": ".print", "5250": " either", "5251": "ipp", "5252": "(d", "5253": "ト", "5254": "ска", "5255": " ()", "5256": "य", "5257": " sure", "5258": " Bu", "5259": " einer", "5260": "ಲ", "5261": " werden", "5262": "ного", "5263": " action", "5264": "respond", "5265": "’d", "5266": " changes", "5267": " 전", "5268": "ία", "5269": " ц", "5270": " normal", "5271": " Brit", "5272": "query", "5273": " influ", "5274": "Array", "5275": " full", "5276": "�", "5277": "�", "5278": "ತ", "5279": "ной", "5280": "פ", "5281": "ů", "5282": " always", "5283": " levels", "5284": "ney", "5285": " err", "5286": "With", "5287": " band", "5288": " δ", "5289": " potential", "5290": "ball", "5291": " وه", "5292": "ruction", "5293": "مة", "5294": "ებ", "5295": "ラ", "5296": "本", "5297": "ji", "5298": "/j", "5299": "chen", "5300": " ber", "5301": "lem", "5302": "ribute", "5303": " Mc", "5304": " stop", "5305": " points", "5306": " />\n", "5307": " \\[", "5308": "-w", "5309": " în", "5310": "otal", "5311": " Ber", "5312": "ication", "5313": "tes", "5314": " already", "5315": " context", "5316": "ibility", "5317": "oi", "5318": "�", "5319": "static", "5320": " été", "5321": "Figure", "5322": "ど", "5323": "Index", "5324": "ี", "5325": " World", "5326": " refer", "5327": " complex", "5328": "’est", "5329": "ей", "5330": "また", "5331": "�", "5332": "么", "5333": "aced", "5334": " mechan", "5335": " củ", "5336": "oto", "5337": "abe", "5338": "!\n\n", "5339": "њ", "5340": "ware", "5341": "ieve", "5342": "当", "5343": " women", "5344": " č", "5345": " repl", "5346": " front", "5347": "ebru", "5348": "Size", "5349": " room", "5350": "ных", "5351": " pur", "5352": "-h", "5353": "ocus", "5354": "ก", "5355": " subject", "5356": "Is", "5357": " eta", "5358": "idos", "5359": "create", "5360": " zur", "5361": " Co", "5362": ".java", "5363": " của", "5364": "nen", "5365": " ju", "5366": "stance", "5367": "�", "5368": "大", "5369": " 第", "5370": " free", "5371": "][", "5372": " cam", "5373": " page", "5374": "ər", "5375": "ութ", "5376": " increased", "5377": " �", "5378": "oma", "5379": "eld", "5380": " И", "5381": " ze", "5382": " مح", "5383": "where", "5384": "./", "5385": " ///", "5386": "كل", "5387": "מ�", "5388": " throw", "5389": " feel", "5390": " Mus", "5391": "Add", "5392": "side", "5393": " investig", "5394": " rap", "5395": " series", "5396": "」\n", "5397": " 모", "5398": " App", "5399": "ッ", "5400": "api", "5401": "ols", "5402": "ilter", "5403": "்த", "5404": "ార", "5405": ".id", "5406": "وان", "5407": " الط", "5408": "volution", "5409": "αν", "5410": "정", "5411": " عام", "5412": " ব", "5413": " Dav", "5414": "'é", "5415": " أي", "5416": " هذا", "5417": " After", "5418": " coll", "5419": " �", "5420": "ending", "5421": "しか", "5422": "ixed", "5423": " ο", "5424": " Cal", "5425": " Germ", "5426": " Bo", "5427": "ilder", "5428": "�", "5429": " под", "5430": "umb", "5431": "content", "5432": "pace", "5433": " door", "5434": "ctor", "5435": " بن", "5436": " tamb", "5437": "verage", "5438": "�", "5439": " )\n", "5440": "هر", "5441": " mer", "5442": " dal", "5443": " cases", "5444": " however", "5445": "raf", "5446": "ों", "5447": "하는", "5448": "Ad", "5449": " account", "5450": "**:", "5451": " date", "5452": " mas", "5453": " Ze", "5454": "ত", "5455": "itar", "5456": "uage", "5457": " *\n", "5458": " 어", "5459": "Controller", "5460": " Af", "5461": "Mod", "5462": " dass", "5463": "ram", "5464": "mo", "5465": " width", "5466": " production", "5467": "β", "5468": "ิ", "5469": " Do", "5470": "mu", "5471": " land", "5472": "else", "5473": "부", "5474": "rict", "5475": "If", "5476": " unit", "5477": "array", "5478": "�", "5479": "_T", "5480": "時", "5481": " conditions", "5482": "_P", "5483": " раз", "5484": "Not", "5485": " ме", "5486": "position", "5487": "لی", "5488": " dam", "5489": "UT", "5490": "ง", "5491": "ությ", "5492": "Sc", "5493": "Result", "5494": "ের", "5495": "plit", "5496": " compared", "5497": "image", "5498": " France", "5499": "lin", "5500": " Not", "5501": "ering", "5502": "package", "5503": "دة", "5504": " Es", "5505": "�", "5506": " ens", "5507": "US", "5508": " су", "5509": "ín", "5510": " application", "5511": " Sim", "5512": " correspond", "5513": "ça", "5514": "ос", "5515": "�", "5516": "AD", "5517": "ju", "5518": "سم", "5519": "�", "5520": " bei", "5521": "}$", "5522": " row", "5523": "��", "5524": " really", "5525": "ello", "5526": " season", "5527": "ಂ", "5528": "Up", "5529": "र्�", "5530": " jed", "5531": "为", "5532": "قي", "5533": "iple", "5534": " mach", "5535": " column", "5536": "所", "5537": " performed", "5538": "�", "5539": "ened", "5540": "raft", "5541": " dir", "5542": "ল", "5543": " mass", "5544": "��", "5545": "лі", "5546": "uto", "5547": "ական", "5548": "ES", "5549": " �", "5550": " Europe", "5551": "bf", "5552": " jo", "5553": "UR", "5554": " пол", "5555": "amed", "5556": " كل", "5557": "ение", "5558": " double", "5559": "SBN", "5560": "iga", "5561": " various", "5562": " الذي", "5563": "�", "5564": " working", "5565": "ached", "5566": " album", "5567": "aren", "5568": " v�", "5569": " आ", "5570": "iu", "5571": " ans", "5572": " though", "5573": "ected", "5574": "ા�", "5575": " estim", "5576": "ने", "5577": "osis", "5578": " region", "5579": "posed", "5580": "�ో", "5581": "cret", "5582": "(int", "5583": "hen", "5584": " tell", "5585": "irl", "5586": " site", "5587": "olean", "5588": "\").", "5589": "ամ", "5590": " regard", "5591": " 정", "5592": " length", "5593": " bien", "5594": "ality", "5595": " done", "5596": "�", "5597": " increase", "5598": " effects", "5599": " publ", "5600": " parte", "5601": "며", "5602": " opp", "5603": "Code", "5604": "ribution", "5605": "신", "5606": " ç", "5607": "ips", "5608": "(),", "5609": " cette", "5610": " item", "5611": "�", "5612": "illa", "5613": " وأ", "5614": " deb", "5615": "osa", "5616": ".app", "5617": " ont", "5618": "_S", "5619": " Gener", "5620": "�", "5621": "(p", "5622": " law", "5623": " ao", "5624": "-S", "5625": "iva", "5626": " 내", "5627": " whether", "5628": " give", "5629": "At", "5630": "-B", "5631": "بد", "5632": ".php", "5633": "este", "5634": " rep", "5635": "inding", "5636": "emp", "5637": "igned", "5638": "ги", "5639": " necess", "5640": " این", "5641": "iques", "5642": "лен", "5643": " rat", "5644": "ھ", "5645": " dig", "5646": " That", "5647": " amount", "5648": " config", "5649": "сть", "5650": "annel", "5651": " och", "5652": " By", "5653": "Act", "5654": "Message", "5655": " بين", "5656": " included", "5657": " était", "5658": "nes", "5659": " bit", "5660": "اخ", "5661": " One", "5662": " provided", "5663": " September", "5664": "جم", "5665": "oz", "5666": " strong", "5667": "ynam", "5668": "apan", "5669": " across", "5670": " Pat", "5671": "\\({}^{", "5672": " ach", "5673": "った", "5674": " War", "5675": " What", "5676": " deg", "5677": " status", "5678": "uck", "5679": " بعد", "5680": "resh", "5681": "éri", "5682": " Ma", "5683": "ester", "5684": "ydro", "5685": "ượ", "5686": " ذلك", "5687": " implement", "5688": "ु�", "5689": "aine", "5690": "icip", "5691": "ila", "5692": " flow", "5693": "asta", "5694": "esis", "5695": " �", "5696": "ור", "5697": " ע", "5698": " fri", "5699": "ты", "5700": " express", "5701": "yth", "5702": " space", "5703": " sig", "5704": " �", "5705": " things", "5706": "assword", "5707": "�", "5708": "și", "5709": "وع", "5710": " clin", "5711": " mis", "5712": "ων", "5713": "�", "5714": "cel", "5715": "oud", "5716": " exec", "5717": "rack", "5718": " house", "5719": " initial", "5720": " dro", "5721": "label", "5722": "lam", "5723": " ви", "5724": " mm", "5725": " course", "5726": " �", "5727": "그", "5728": "ár", "5729": "iento", "5730": "았", "5731": " eyes", "5732": "orage", "5733": " behav", "5734": " sel", "5735": " risk", "5736": "hal", "5737": "شر", "5738": "تل", "5739": "uy", "5740": " came", "5741": "ม", "5742": " members", "5743": " establ", "5744": "istic", "5745": "omet", "5746": " valid", "5747": "�", "5748": "‌های", "5749": "πο", "5750": "دي", "5751": " address", "5752": "作", "5753": " seen", "5754": " {\\", "5755": "iert", "5756": "érie", "5757": "cher", "5758": "Manager", "5759": " mind", "5760": "asing", "5761": " CO", "5762": " select", "5763": "于", "5764": "color", "5765": "وي", "5766": " tw", "5767": "ơ", "5768": " ener", "5769": "iction", "5770": "ク", "5771": "ismo", "5772": " sex", "5773": " +=", "5774": "ட", "5775": " hor", "5776": "reate", "5777": "het", "5778": "Node", "5779": " console", "5780": "Att", "5781": " ո", "5782": " why", "5783": "िय", "5784": "mathrm", "5785": " once", "5786": "uv", "5787": "medi", "5788": "�", "5789": " på", "5790": " إن", "5791": "iding", "5792": " seu", "5793": " avait", "5794": "icy", "5795": " Mart", "5796": " pal", "5797": " til", "5798": "istance", "5799": "ape", "5800": "В", "5801": "く", "5802": " observed", "5803": " std", "5804": "ís", "5805": " National", "5806": " height", "5807": " keep", "5808": " não", "5809": "asi", "5810": "려", "5811": "ông", "5812": " đ�", "5813": "상", "5814": " Janu", "5815": " fund", "5816": " toget", "5817": "اض", "5818": "isp", "5819": "قل", "5820": " ہ", "5821": " April", "5822": "si", "5823": " together", "5824": " па", "5825": "ρα", "5826": " discuss", "5827": " evalu", "5828": "ρο", "5829": "iments", "5830": "ט", "5831": "와", "5832": "야", "5833": " avo", "5834": " indust", "5835": " integr", "5836": "uz", "5837": "perty", "5838": "ague", "5839": "'est", "5840": " employ", "5841": " వ", "5842": " կ", "5843": " wie", "5844": "ব", "5845": " Act", "5846": " einem", "5847": "Des", "5848": "point", "5849": "-C", "5850": "nie", "5851": "مان", "5852": " protein", "5853": "ў", "5854": "оди", "5855": "Bl", "5856": " 때", "5857": "-st", "5858": " что", "5859": "但是", "5860": " decl", "5861": " decre", "5862": "成", "5863": "Def", "5864": " hold", "5865": "ał", "5866": "��", "5867": "rat", "5868": "sel", "5869": "۰", "5870": "iente", "5871": ")\\", "5872": " became", "5873": "Box", "5874": "�", "5875": "ಗ", "5876": "true", "5877": "�", "5878": " calcul", "5879": " Dec", "5880": "_,", "5881": "Image", "5882": " arm", "5883": " تم", "5884": " �", "5885": "\\({}_{", "5886": " fra", "5887": " وت", "5888": " third", "5889": "же", "5890": ".in", "5891": "gn", "5892": "æ", "5893": "那", "5894": "మ", "5895": "urity", "5896": "%D", "5897": " lie", "5898": " kind", "5899": " 마", "5900": "cular", "5901": " �", "5902": "eur", "5903": "imal", "5904": "ões", "5905": "ब", "5906": "ır", "5907": "ـ", "5908": "ainer", "5909": "-A", "5910": "ño", "5911": " ग", "5912": "이다", "5913": " ok", "5914": "max", "5915": " Int", "5916": "ago", "5917": " prec", "5918": "itz", "5919": " sua", "5920": "],\n", "5921": " typ", "5922": " government", "5923": " demon", "5924": "ուն", "5925": " syn", "5926": "元", "5927": "iers", "5928": " ax", "5929": "sten", "5930": " With", "5931": " sy", "5932": " zum", "5933": "anks", "5934": "Be", "5935": "table", "5936": " custom", "5937": "ches", "5938": "/c", "5939": " Dr", "5940": "anz", "5941": "ジ", "5942": "�", "5943": "most", "5944": " measure", "5945": " incl", "5946": " six", "5947": "�", "5948": ".png", "5949": " added", "5950": ".r", "5951": "änd", "5952": "(this", "5953": "alle", "5954": " weight", "5955": "indows", "5956": " below", "5957": "ema", "5958": "――", "5959": "\"></", "5960": " تح", "5961": "ounds", "5962": " Gl", "5963": " با", "5964": "�", "5965": " pattern", "5966": " step", "5967": "��", "5968": "eme", "5969": "Em", "5970": " city", "5971": ".L", "5972": " reason", "5973": "یر", "5974": " alle", "5975": " 있다", "5976": "********", "5977": "ంద", "5978": " showed", "5979": "cd", "5980": " �", "5981": "lag", "5982": "ာ", "5983": "valid", "5984": "过", "5985": "orge", "5986": "وت", "5987": "ottom", "5988": "rab", "5989": " sind", "5990": " standard", "5991": "�", "5992": " gru", "5993": ".*", "5994": " Л", "5995": " unter", "5996": "فس", "5997": "esch", "5998": "uid", "5999": " har", "6000": " Mal", "6001": "ء", "6002": " conduct", "6003": "AS", "6004": " member", "6005": "جل", "6006": "тель", "6007": "config", "6008": "ע", "6009": " Art", "6010": " quant", "6011": "য়", "6012": " pay", "6013": ".out", "6014": "之", "6015": " econom", "6016": "到", "6017": "ә", "6018": "Fig", "6019": ".n", "6020": "isc", "6021": " methods", "6022": "しかし", "6023": "ана", "6024": " هذه", "6025": " sett", "6026": " contact", "6027": "utsch", "6028": "una", "6029": "�", "6030": "كون", "6031": " Paul", "6032": " November", "6033": " host", "6034": "andid", "6035": "ee", "6036": "begin", "6037": "ück", "6038": " Stud", "6039": "(new", "6040": "ầ", "6041": "ème", "6042": " relationship", "6043": " tit", "6044": " Mor", "6045": " 주", "6046": "�", "6047": ".R", "6048": "IC", "6049": "ober", "6050": "제", "6051": "rav", "6052": " /**\n", "6053": " introdu", "6054": "entes", "6055": "レ", "6056": " models", "6057": "�", "6058": "�", "6059": "list", "6060": "idade", "6061": " special", "6062": "�", "6063": "mary", "6064": " death", "6065": " resol", "6066": " Abstract", "6067": "тор", "6068": "Cap", "6069": " Oct", "6070": "ınd", "6071": " einen", "6072": "ière", "6073": "-china", "6074": " transform", "6075": "�", "6076": " consist", "6077": " (!", "6078": "des", "6079": " section", "6080": "Die", "6081": "ham", "6082": "iddle", "6083": " prot", "6084": " الو", "6085": "itory", "6086": " States", "6087": " الث", "6088": "elles", "6089": " author", "6090": " considered", "6091": " energy", "6092": "�்", "6093": " environment", "6094": "ators", "6095": " nou", "6096": "صل", "6097": "aria", "6098": "iten", "6099": " font", "6100": "Input", "6101": "히", "6102": "ʻ", "6103": " performance", "6104": "ներ", "6105": "New", "6106": "�", "6107": "يع", "6108": "board", "6109": "request", "6110": "ે", "6111": "ucle", "6112": "aire", "6113": " works", "6114": " pan", "6115": "స", "6116": "여", "6117": " near", "6118": "pat", "6119": " У", "6120": " dar", "6121": "idget", "6122": " shows", "6123": " search", "6124": " accept", "6125": "uments", "6126": "ית", "6127": " become", "6128": " की", "6129": "plied", "6130": " cross", "6131": " fav", "6132": "www", "6133": " clear", "6134": "்ப", "6135": "’m", "6136": " asked", "6137": " disease", "6138": " temperature", "6139": " limit", "6140": " ps", "6141": "前", "6142": " Der", "6143": "**,", "6144": "iber", "6145": " God", "6146": " CD", "6147": "ULL", "6148": " �", "6149": "_b", "6150": "olo", "6151": " sche", "6152": "aged", "6153": " rather", "6154": "code", "6155": " �", "6156": "sub", "6157": " compar", "6158": " এ", "6159": "char", "6160": " pen", "6161": " си", "6162": " prem", "6163": "كر", "6164": " related", "6165": " simple", "6166": "').", "6167": " gro", "6168": " national", "6169": "(\\", "6170": " business", "6171": " enough", "6172": "pty", "6173": "ifier", "6174": "ky", "6175": "Ent", "6176": " مت", "6177": ".length", "6178": "ota", "6179": "би", "6180": "rier", "6181": "Config", "6182": "»,", "6183": " oder", "6184": " five", "6185": "'re", "6186": " sample", "6187": " making", "6188": " micro", "6189": " Port", "6190": "urt", "6191": "ன", "6192": " Dan", "6193": "-P", "6194": " node", "6195": " direction", "6196": " Char", "6197": " года", "6198": "্য", "6199": "دم", "6200": "elta", "6201": " leur", "6202": "heck", "6203": " foi", "6204": " din", "6205": "ца", "6206": " mort", "6207": " miss", "6208": "Ed", "6209": "Hand", "6210": "anta", "6211": "alls", "6212": " pou", "6213": "였", "6214": "ead", "6215": " este", "6216": "gi", "6217": "IV", "6218": " others", "6219": "Override", "6220": " ox", "6221": "Out", "6222": "Page", "6223": "script", "6224": "ris", "6225": " Add", "6226": "ো", "6227": " تع", "6228": " Fil", "6229": "سل", "6230": " await", "6231": " close", "6232": "َّ", "6233": " کی", "6234": " __", "6235": ".W", "6236": "oney", "6237": " pul", "6238": "lor", "6239": " Har", "6240": " layer", "6241": "ల", "6242": "ija", "6243": "ML", "6244": " și", "6245": " multiple", "6246": "ensive", "6247": "ள", "6248": "imo", "6249": "ialog", "6250": "\\n", "6251": "ков", "6252": " थ", "6253": "П", "6254": " created", "6255": " task", "6256": " t�", "6257": " nav", "6258": " compet", "6259": " भ", "6260": "ಳ", "6261": "ный", "6262": "bon", "6263": "rary", "6264": "acional", "6265": "��", "6266": " offer", "6267": " tour", "6268": "iano", "6269": "Ref", "6270": "see", "6271": " Pe", "6272": " اس", "6273": "},\n", "6274": " seem", "6275": "後", "6276": " educ", "6277": " independ", "6278": "enu", "6279": " Ag", "6280": "ogle", "6281": " même", "6282": "icos", "6283": "可", "6284": "She", "6285": " dim", "6286": "iden", "6287": " wird", "6288": "(String", "6289": "월", "6290": " pet", "6291": "atz", "6292": "AP", "6293": "�", "6294": " ci", "6295": " მ", "6296": " magn", "6297": "ատ", "6298": " correct", "6299": " ich", "6300": " مر", "6301": "geb", "6302": " instead", "6303": " ba", "6304": " His", "6305": " rom", "6306": " obtained", "6307": " received", "6308": " City", "6309": " card", "6310": "ید", "6311": " 제", "6312": ".util", "6313": "・", "6314": "간", "6315": " nel", "6316": " exc", "6317": "하고", "6318": "pan", "6319": "Il", "6320": " (\n", "6321": "نت", "6322": " selected", "6323": " Inter", "6324": " Mich", "6325": "oms", "6326": "icas", "6327": "mitt", "6328": "isation", "6329": "aten", "6330": " history", "6331": " acid", "6332": "��", "6333": " Fig", "6334": " past", "6335": " embod", "6336": " drug", "6337": " Jo", "6338": "aining", "6339": "ση", "6340": "emplate", "6341": "amento", "6342": "lim", "6343": "ischer", "6344": "û", "6345": "yr", "6346": " March", "6347": " catch", "6348": " של", "6349": "ше", "6350": ".F", "6351": " 위", "6352": " هو", "6353": " th�", "6354": " doesn", "6355": " sn", "6356": " club", "6357": "anced", "6358": "iqu", "6359": "            ", "6360": " description", "6361": " demonstr", "6362": "ving", "6363": "지만", "6364": "isi", "6365": " �", "6366": " administ", "6367": "          ", "6368": "/com", "6369": " review", "6370": " trying", "6371": "object", "6372": "े�", "6373": " map", "6374": "니다", "6375": " rele", "6376": "itude", "6377": "ithub", "6378": "osph", "6379": "ס", "6380": " poly", "6381": "?”", "6382": " 「", "6383": "stant", "6384": "raz", "6385": "alpha", "6386": "ম", "6387": " went", "6388": "سي", "6389": "aciones", "6390": "check", "6391": " assess", "6392": " Form", "6393": " ப", "6394": " �", "6395": " server", "6396": " begin", "6397": " imag", "6398": " led", "6399": "ล", "6400": " có", "6401": " ה", "6402": " （", "6403": "cing", "6404": " relig", "6405": "iene", "6406": "/d", "6407": "μα", "6408": "щи", "6409": "って", "6410": " loss", "6411": "pm", "6412": "람", "6413": " types", "6414": " से", "6415": "berg", "6416": "ове", "6417": "’re", "6418": " imm", "6419": " win", "6420": " half", "6421": " ...", "6422": ",\n\n", "6423": "��", "6424": " Sal", "6425": ".is", "6426": " औ", "6427": "eria", "6428": "Content", "6429": "oved", "6430": "국", "6431": "ius", "6432": " cover", "6433": "verse", "6434": "天", "6435": " conv", "6436": "对", "6437": "'une", "6438": " Pre", "6439": "わ", "6440": "uery", "6441": " Sie", "6442": " liter", "6443": " South", "6444": " soft", "6445": "omas", "6446": "uan", "6447": "因此", "6448": " frame", "6449": " کے", "6450": " Lond", "6451": "rica", "6452": " held", "6453": "su", "6454": "las", "6455": " ста", "6456": "음", "6457": "้", "6458": "ਾ", "6459": " sv", "6460": "».", "6461": "מ", "6462": "성", "6463": "ternal", "6464": "մ", "6465": "ops", "6466": "oles", "6467": " systems", "6468": " focus", "6469": "жа", "6470": " Get", "6471": " Ein", "6472": "post", "6473": "Line", "6474": "ė", "6475": " fun", "6476": "ensity", "6477": " Phil", "6478": "，\n\n", "6479": "ael", "6480": " apr", "6481": " Park", "6482": " patient", "6483": "'ve", "6484": "change", "6485": "シ", "6486": "。「", "6487": "되", "6488": "bor", "6489": "ono", "6490": " Russ", "6491": "……”\n\n", "6492": "esta", "6493": " defined", "6494": "'A", "6495": "�", "6496": " State", "6497": "ại", "6498": "ién", "6499": "يات", "6500": "anger", "6501": "وز", "6502": "Component", "6503": "ド", "6504": "할", "6505": " respectively", "6506": " би", "6507": "FA", "6508": " ord", "6509": " round", "6510": "with", "6511": "�", "6512": " ni", "6513": "hing", "6514": "ande", "6515": "ці", "6516": "је", "6517": " blood", "6518": "ارة", "6519": "js", "6520": "erd", "6521": ".println", "6522": " nombre", "6523": " Bel", "6524": "\\[", "6525": "르", "6526": " commune", "6527": "્", "6528": "్రా�", "6529": " और", "6530": " clos", "6531": " meet", "6532": "ран", "6533": " علي", "6534": "(i", "6535": "BC", "6536": "ке", "6537": " mole", "6538": " _{", "6539": " inhib", "6540": "وف", "6541": "ды", "6542": " 있는", "6543": "્�", "6544": " Pres", "6545": " ض", "6546": " فر", "6547": " को", "6548": "�", "6549": " dit", "6550": " ե", "6551": "iar", "6552": " young", "6553": " concern", "6554": " rot", "6555": "었", "6556": "product", "6557": "ulated", "6558": "까", "6559": "�", "6560": " cannot", "6561": "_in", "6562": "�", "6563": "ệ", "6564": "名", "6565": ".P", "6566": "Response", "6567": "fect", "6568": "define", "6569": " με", "6570": " condition", "6571": "ثر", "6572": " sen", "6573": " King", "6574": " taken", "6575": "bers", "6576": " cin", "6577": " adj", "6578": "mt", "6579": " př", "6580": " company", "6581": "rown", "6582": " nu", "6583": "ledge", "6584": " species", "6585": " Sam", "6586": " Lu", "6587": "כ", "6588": " thing", "6589": "外", "6590": " Ital", "6591": " services", "6592": " difference", "6593": " difficult", "6594": " nature", "6595": "전", "6596": "van", "6597": "cción", "6598": " prés", "6599": " instance", "6600": " ment", "6601": " ве", "6602": "ী", "6603": "-n", "6604": " prefer", "6605": "Qu", "6606": "க", "6607": " 거", "6608": " oc", "6609": " began", "6610": " upon", "6611": "oke", "6612": "жи", "6613": " force", "6614": " hy", "6615": " ===", "6616": "iế", "6617": "�", "6618": " needed", "6619": " words", "6620": "Status", "6621": "ube", "6622": "\tc", "6623": "例", "6624": "urop", "6625": " inside", "6626": "====", "6627": " Mark", "6628": " memory", "6629": "ု", "6630": " pero", "6631": "ち", "6632": "უ�", "6633": " June", "6634": " 생", "6635": "isplay", "6636": "enden", "6637": "({\n", "6638": " tum", "6639": "يرة", "6640": " Febru", "6641": "Click", "6642": " construct", "6643": ".to", "6644": "ديد", "6645": " Pal", "6646": "�i", "6647": "ags", "6648": "ordin", "6649": "aven", "6650": "mas", "6651": "next", "6652": " Trans", "6653": " October", "6654": " volt", "6655": "atively", "6656": " contra", "6657": " experiment", "6658": " Go", "6659": "abled", "6660": "्त", "6661": "oken", "6662": ".x", "6663": " attack", "6664": "�", "6665": "anda", "6666": "يف", "6667": "body", "6668": "                                   ", "6669": "Count", "6670": ".ex", "6671": "ills", "6672": " Data", "6673": "IS", "6674": " idea", "6675": "اث", "6676": " ком", "6677": "né", "6678": "െ", "6679": "uns", "6680": "(e", "6681": " న", "6682": " της", "6683": "ged", "6684": "ije", "6685": " nor", "6686": " spect", "6687": "�", "6688": "ід", "6689": " elements", "6690": " š", "6691": " Fre", "6692": "place", "6693": "�", "6694": "она", "6695": " significantly", "6696": "주", "6697": " Austral", "6698": "ouble", "6699": "({", "6700": "ান", "6701": " auss", "6702": "‘", "6703": "_data", "6704": " etc", "6705": " max", "6706": " cause", "6707": "${", "6708": "ports", "6709": " component", "6710": "至", "6711": "From", "6712": " soci", "6713": "’un", "6714": "�", "6715": " lot", "6716": " recom", "6717": " maxim", "6718": " tor", "6719": "enz", "6720": "My", "6721": "치", "6722": "aft", "6723": " כ", "6724": "ani", "6725": " echo", "6726": " update", "6727": " yet", "6728": " المت", "6729": "react", "6730": " appear", "6731": "adem", "6732": " big", "6733": "وی", "6734": "azione", "6735": "gs", "6736": " ն", "6737": "문", "6738": " III", "6739": "ல", "6740": "ườ", "6741": "िक", "6742": " cancer", "6743": "lichen", "6744": "ย", "6745": "actions", "6746": "ipe", "6747": " vot", "6748": "�", "6749": "～", "6750": "istics", "6751": " وج", "6752": " reference", "6753": " ê", "6754": "kn", "6755": "好", "6756": " wr", "6757": " night", "6758": "AM", "6759": "’il", "6760": " Sm", "6761": " él", "6762": " growth", "6763": " factors", "6764": " pun", "6765": " label", "6766": ".org", "6767": " Sw", "6768": "teger", "6769": " issue", "6770": "iti", "6771": "ń", "6772": "rl", "6773": " vel", "6774": "}}\\", "6775": "System", "6776": " July", "6777": " Japan", "6778": " capac", "6779": "blank", "6780": "<?", "6781": "구", "6782": "'h", "6783": " 부", "6784": "omin", "6785": "ավ", "6786": "uh", "6787": "ander", "6788": "就", "6789": "να", "6790": " vous", "6791": " �", "6792": " Fe", "6793": "-to", "6794": " бу", "6795": " �", "6796": " ven", "6797": " Don", "6798": " appar", "6799": " \"\"", "6800": "二", "6801": "�", "6802": "ные", "6803": "lie", "6804": "plications", "6805": " vez", "6806": "private", "6807": " nous", "6808": "ثل", "6809": " kil", "6810": "ady", "6811": "ược", "6812": "aking", "6813": "'d", "6814": "世", "6815": " Saint", "6816": " country", "6817": " tod", "6818": " positive", "6819": "عض", "6820": " tried", "6821": "�", "6822": " autom", "6823": " ž", "6824": " چ", "6825": "pose", "6826": "down", "6827": "option", "6828": " Nor", "6829": "ם", "6830": " Then", "6831": " proced", "6832": " tim", "6833": " primary", "6834": "gt", "6835": " peu", "6836": " whole", "6837": "۲", "6838": "��", "6839": "إن", "6840": "ños", "6841": "lib", "6842": " fol", "6843": " пра", "6844": "�", "6845": "回", "6846": "ادة", "6847": ".T", "6848": "obile", "6849": "*.\n\n", "6850": "ker", "6851": "ว", "6852": " assert", "6853": " Gre", "6854": " job", "6855": "স", "6856": " terms", "6857": "ye", "6858": " recogn", "6859": " بد", "6860": " Comp", "6861": "angle", "6862": "اني", "6863": "الي", "6864": "rio", "6865": "եր�", "6866": " January", "6867": " się", "6868": "Ser", "6869": " Po", "6870": "ustr", "6871": "لب", "6872": " cm", "6873": " esp", "6874": " Land", "6875": "atur", "6876": " squ", "6877": "ү", "6878": " expected", "6879": "%)", "6880": "argin", "6881": "Trans", "6882": "Inter", "6883": " sor", "6884": "اة", "6885": " °", "6886": "ത", "6887": "arning", "6888": "center", "6889": " enter", "6890": " pain", "6891": " ఉ", "6892": "实", "6893": "ה�", "6894": " thus", "6895": "oul", "6896": " lines", "6897": " modern", "6898": " conse", "6899": " ב", "6900": "ieder", "6901": "�്�", "6902": " desc", "6903": " Jahr", "6904": " transfer", "6905": "қ", "6906": " likely", "6907": "cos", "6908": " active", "6909": " pressure", "6910": " ISBN", "6911": "_M", "6912": "タ", "6913": " lat", "6914": " Los", "6915": "actory", "6916": "ipo", "6917": "�", "6918": "OT", "6919": "ospital", "6920": " move", "6921": "样", "6922": "国", "6923": " [\n", "6924": " http", "6925": "Param", "6926": "ג", "6927": " mechanism", "6928": "-D", "6929": " territ", "6930": " كانت", "6931": " average", "6932": "رض", "6933": " track", "6934": " client", "6935": " grad", "6936": "iệ", "6937": " 인", "6938": " viol", "6939": " food", "6940": "onom", "6941": " nur", "6942": "կ", "6943": " voor", "6944": "؟", "6945": " cut", "6946": "الم", "6947": " song", "6948": "ação", "6949": "fully", "6950": " γ", "6951": "lish", "6952": "ев", "6953": " sav", "6954": " quel", "6955": " benef", "6956": "\t\t\t\t\t\t", "6957": " ya", "6958": "There", "6959": " David", "6960": " entire", "6961": "roy", "6962": " fall", "6963": "ột", "6964": "OS", "6965": " doing", "6966": "수", "6967": " natural", "6968": " arch", "6969": " rev", "6970": "AG", "6971": " features", "6972": " months", "6973": "个", "6974": " random", "6975": " कर", "6976": " diagn", "6977": " jun", "6978": " Na", "6979": "下", "6980": " looked", "6981": " sold", "6982": "pret", "6983": " attempt", "6984": "Number", "6985": "rich", "6986": " Dem", "6987": " includes", "6988": " 중", "6989": "field", "6990": " started", "6991": "）。\n\n", "6992": " /*", "6993": " Paris", "6994": " pie", "6995": "ül", "6996": "Ph", "6997": " auth", "6998": "rea", "6999": "ND", "7000": " zw", "7001": " premi", "7002": "其", "7003": "ел", "7004": " 사람", "7005": " els", "7006": "reet", "7007": " bal", "7008": " heart", "7009": " وق", "7010": " ли", "7011": "esse", "7012": "ían", "7013": "च", "7014": "hn", "7015": "amespace", "7016": "Listener", "7017": "ров", "7018": " North", "7019": " для", "7020": "�", "7021": "드", "7022": "公", "7023": "thern", "7024": " phot", "7025": "�", "7026": " screen", "7027": "ात", "7028": "comes", "7029": " −", "7030": " central", "7031": "వ", "7032": " 여", "7033": "iller", "7034": " center", "7035": " defin", "7036": " dei", "7037": " य", "7038": " extends", "7039": " altern", "7040": " Rec", "7041": "uct", "7042": " background", "7043": " Ap", "7044": " Alex", "7045": "ря", "7046": " ،", "7047": " ko", "7048": "gal", "7049": " 되", "7050": "보", "7051": "ED", "7052": "enter", "7053": "=\"_", "7054": " aud", "7055": "}=", "7056": " nie", "7057": "۔", "7058": "-e", "7059": "出", "7060": " impact", "7061": " experience", "7062": " сп", "7063": "active", "7064": "fr", "7065": "�", "7066": " gas", "7067": " million", "7068": "�", "7069": "iger", "7070": "页", "7071": "utions", "7072": "ply", "7073": " кон", "7074": "ів", "7075": " được", "7076": " آن", "7077": " ни", "7078": " variable", "7079": " phase", "7080": " organiz", "7081": "ening", "7082": " reve", "7083": " Acc", "7084": " أك", "7085": " •", "7086": "した", "7087": "Query", "7088": "ühr", "7089": " students", "7090": " tal", "7091": " option", "7092": " exact", "7093": " مس", "7094": " milit", "7095": "-based", "7096": " قد", "7097": " Ke", "7098": "auf", "7099": "encies", "7100": "ttps", "7101": " Str", "7102": "inary", "7103": "Caption", "7104": "undo", "7105": "/main", "7106": "ာ�", "7107": " love", "7108": " Ф", "7109": " tempor", "7110": " prior", "7111": "select", "7112": " وم", "7113": " tiss", "7114": " End", "7115": " almost", "7116": "Les", "7117": " zwe", "7118": " gene", "7119": "/src", "7120": ".html", "7121": "�", "7122": ".data", "7123": "ज", "7124": "πό", "7125": " followed", "7126": "itation", "7127": " radi", "7128": "نة", "7129": " events", "7130": "�", "7131": " hatte", "7132": "lying", "7133": " percent", "7134": "PE", "7135": " wanted", "7136": " cer", "7137": " predict", "7138": ".B", "7139": " Mil", "7140": "ద", "7141": "inde", "7142": " univers", "7143": " hydro", "7144": ".append", "7145": "ponents", "7146": " music", "7147": " future", "7148": "ена", "7149": " గ", "7150": "rial", "7151": "pped", "7152": "ან", "7153": " bed", "7154": "};\n\n", "7155": " https", "7156": "Rep", "7157": " Elle", "7158": "                     ", "7159": "mathbf", "7160": "��", "7161": " ground", "7162": "ב�", "7163": " dont", "7164": " Rich", "7165": " media", "7166": "ijn", "7167": " clinical", "7168": " ;\n", "7169": " Mad", "7170": " hac", "7171": "inen", "7172": " mode", "7173": "di", "7174": " ம", "7175": "ಕ", "7176": "Us", "7177": " ос", "7178": "umer", "7179": " க", "7180": "ambda", "7181": "Det", "7182": "يت", "7183": " indu", "7184": "ూ", "7185": " extra", "7186": "zn", "7187": "ova", "7188": " vert", "7189": "》（", "7190": "ాల", "7191": "hl", "7192": " properties", "7193": "용", "7194": " anc", "7195": " fail", "7196": " так", "7197": "�", "7198": "_to", "7199": " December", "7200": "ares", "7201": " talk", "7202": " ಮ", "7203": "endant", "7204": " histor", "7205": " chem", "7206": "rew", "7207": " cop", "7208": "----------------", "7209": " Red", "7210": "平", "7211": " anything", "7212": "vement", "7213": "ْ", "7214": "sen", "7215": " lig", "7216": "ս", "7217": " Hen", "7218": "ivil", "7219": "itional", "7220": "alla", "7221": " ä", "7222": "link", "7223": "\".\n\n", "7224": " areas", "7225": "ername", "7226": " tom", "7227": "……\n\n", "7228": " former", "7229": " 경", "7230": "ıl", "7231": "里", "7232": " market", "7233": "yles", "7234": " sans", "7235": "blic", "7236": " IN", "7237": "_F", "7238": "mat", "7239": "uted", "7240": "version", "7241": "apy", "7242": "்ட", "7243": "였다", "7244": " black", "7245": "asse", "7246": "�", "7247": "CH", "7248": "^{\\", "7249": "lig", "7250": " ν", "7251": "ých", "7252": " ($", "7253": " 상", "7254": " fer", "7255": "우", "7256": " ever", "7257": "anged", "7258": "book", "7259": " evidence", "7260": " occur", "7261": "يث", "7262": " vie", "7263": " walk", "7264": "Client", "7265": "iting", "7266": " tut", "7267": " Vol", "7268": "isse", "7269": " Text", "7270": "fort", "7271": " nos", "7272": " gran", "7273": "`,", "7274": "\\(\\", "7275": " Jean", "7276": " late", "7277": " draw", "7278": " language", "7279": "త", "7280": " samples", "7281": " З", "7282": "テ", "7283": " looking", "7284": "데", "7285": " location", "7286": "ाल", "7287": " wurden", "7288": " accom", "7289": "hand", "7290": "!!", "7291": " developed", "7292": "′", "7293": " actual", "7294": "ython", "7295": " :\n\n", "7296": "cu", "7297": ")\n\n\n", "7298": "صر", "7299": " property", "7300": " 《", "7301": "ще", "7302": "dom", "7303": " Log", "7304": " surv", "7305": "مد", "7306": "mar", "7307": " stra", "7308": "ford", "7309": " files", "7310": "icles", "7311": "rs", "7312": "ού", "7313": " parameters", "7314": "akt", "7315": "��", "7316": " stage", "7317": " Bro", "7318": "بة", "7319": "кт", "7320": " habit", "7321": "rec", "7322": "adio", "7323": " fuer", "7324": "Sub", "7325": " More", "7326": " feature", "7327": "ampions", "7328": "-F", "7329": "eller", "7330": " query", "7331": "�", "7332": " aussi", "7333": "hline", "7334": " minutes", "7335": "ба", "7336": "ции", "7337": " 들", "7338": "Equ", "7339": "��", "7340": "ө", "7341": "title", "7342": " factor", "7343": "然而", "7344": " Dep", "7345": "ami", "7346": " anti", "7347": "used", "7348": "각", "7349": " أم", "7350": " être", "7351": "ôt", "7352": "Su", "7353": " quality", "7354": "yz", "7355": "�", "7356": " sous", "7357": " personal", "7358": " released", "7359": "map", "7360": "生", "7361": " presence", "7362": "�", "7363": " himself", "7364": "())", "7365": "ceed", "7366": "ging", "7367": " filter", "7368": "path", "7369": " Stadium", "7370": " Ac", "7371": " Lou", "7372": "’ll", "7373": "fficient", "7374": " noch", "7375": "რ", "7376": " Ent", "7377": " wait", "7378": "igo", "7379": "enta", "7380": "στ", "7381": " इ", "7382": " compos", "7383": " خل", "7384": "던", "7385": " Final", "7386": "ords", "7387": "اری", "7388": "」（", "7389": " functions", "7390": "ungs", "7391": "astic", "7392": "(st", "7393": "ography", "7394": ")*", "7395": "ieved", "7396": "лы", "7397": "aled", "7398": " player", "7399": " έ", "7400": "leep", "7401": " concept", "7402": "oro", "7403": "트", "7404": " window", "7405": "్న", "7406": "inte", "7407": " nucle", "7408": "SC", "7409": " fig", "7410": " Hist", "7411": " plant", "7412": "}+", "7413": " प्र", "7414": "pir", "7415": "izing", "7416": "flow", "7417": " Div", "7418": " write", "7419": "oire", "7420": " border", "7421": "light", "7422": "知", "7423": " itself", "7424": " Table", "7425": "ด", "7426": " où", "7427": " told", "7428": "arth", "7429": "方", "7430": " web", "7431": " وب", "7432": "airs", "7433": " bil", "7434": " ru", "7435": " behind", "7436": "width", "7437": "”。\n\n", "7438": " ),\n", "7439": "open", "7440": " י", "7441": "ვ", "7442": " actually", "7443": "았다", "7444": " seems", "7445": " está", "7446": "One", "7447": " uns", "7448": " 소", "7449": "pg", "7450": " install", "7451": "Group", "7452": " community", "7453": " sense", "7454": "response", "7455": " saw", "7456": " James", "7457": " 『", "7458": "frame", "7459": "ု�", "7460": "OD", "7461": "フ", "7462": " principal", "7463": "izer", "7464": "ún", "7465": " capt", "7466": " Air", "7467": "ña", "7468": "ול", "7469": " mol", "7470": "vin", "7471": "ต", "7472": " 무", "7473": "ril", "7474": " Sa", "7475": "_D", "7476": " video", "7477": " clim", "7478": " China", "7479": " На", "7480": "lege", "7481": " additional", "7482": " fire", "7483": " ча", "7484": " các", "7485": " :=", "7486": "oute", "7487": " General", "7488": "ड", "7489": "iana", "7490": " Just", "7491": "-G", "7492": " Ben", "7493": "What", "7494": " url", "7495": " prevent", "7496": " white", "7497": " teach", "7498": "、\n\n", "7499": "़", "7500": " stress", "7501": "فر", "7502": "ăm", "7503": "fol", "7504": " (\"", "7505": " guer", "7506": " Some", "7507": " distribution", "7508": "ур", "7509": ".pro", "7510": " makes", "7511": " kö", "7512": "ိ", "7513": " ID", "7514": " invention", "7515": "عم", "7516": " felt", "7517": "more", "7518": "unicip", "7519": "enced", "7520": " British", "7521": " 바", "7522": "attle", "7523": " running", "7524": " Aus", "7525": "ေ", "7526": "�", "7527": " المن", "7528": "agen", "7529": " probably", "7530": " switch", "7531": "سی", "7532": "_type", "7533": "kin", "7534": "'ll", "7535": " ta", "7536": " Jah", "7537": " foot", "7538": " mai", "7539": "dev", "7540": " involved", "7541": "ahl", "7542": "ера", "7543": "你", "7544": "race", "7545": " nothing", "7546": "ères", "7547": " пере", "7548": "事", "7549": "#define", "7550": " Đ", "7551": " ces", "7552": "imm", "7553": " alla", "7554": "명", "7555": " engine", "7556": "egen", "7557": "how", "7558": " pack", "7559": " aber", "7560": " needs", "7561": "aves", "7562": "».\n\n", "7563": " formed", "7564": "'in", "7565": "言", "7566": " station", "7567": " NULL", "7568": "�", "7569": " vill", "7570": " يع", "7571": " ба", "7572": "ped", "7573": ".cl", "7574": " Ob", "7575": " portion", "7576": "clus", "7577": "డ", "7578": " ép", "7579": "ες", "7580": " ?\n\n", "7581": "×", "7582": "ournal", "7583": "اري", "7584": " ম", "7585": "formation", "7586": " quick", "7587": " ple", "7588": "atives", "7589": "adding", "7590": "ope", "7591": "ring", "7592": "Action", "7593": " hon", "7594": " пред", "7595": " divers", "7596": "ête", "7597": " Mod", "7598": "olf", "7599": "%B", "7600": " Date", "7601": " Cap", "7602": "burg", "7603": " sé", "7604": "마", "7605": "Select", "7606": " हो", "7607": " greater", "7608": "olic", "7609": "್ತ", "7610": " First", "7611": " å", "7612": ")</", "7613": " Hol", "7614": "requ", "7615": "context", "7616": " box", "7617": " func", "7618": "LO", "7619": "CC", "7620": "А", "7621": "amer", "7622": "III", "7623": " ಸ", "7624": "unn", "7625": " assum", "7626": "HE", "7627": "web", "7628": "աս", "7629": " сво", "7630": "nection", "7631": "ट", "7632": "್ರ", "7633": " Cr", "7634": " დ", "7635": " culture", "7636": "eren", "7637": " Test", "7638": " problems", "7639": "му", "7640": "ám", "7641": "apping", "7642": "خص", "7643": " Jack", "7644": " acqu", "7645": " perm", "7646": "ffect", "7647": "time", "7648": " gel", "7649": " 같", "7650": "ersion", "7651": "When", "7652": " although", "7653": "сле", "7654": " building", "7655": " directly", "7656": "�", "7657": "uj", "7658": "arrow", "7659": "idden", "7660": "endre", "7661": "','", "7662": " complete", "7663": "Rec", "7664": "ragment", "7665": " 만", "7666": "آ", "7667": " database", "7668": " dep", "7669": "parent", "7670": "amin", "7671": " pens", "7672": " Sub", "7673": "ất", "7674": " turned", "7675": " ми", "7676": " popular", "7677": " rés", "7678": " 공", "7679": "ता", "7680": "anti", "7681": "ท", "7682": "ções", "7683": "avy", "7684": "’é", "7685": " operation", "7686": "래", "7687": "iat", "7688": " נ", "7689": " mir", "7690": "MP", "7691": "cil", "7692": "email", "7693": " mention", "7694": " 해", "7695": "最", "7696": " بل", "7697": "now", "7698": " jud", "7699": "ulations", "7700": " hours", "7701": "ī", "7702": " especially", "7703": " 오", "7704": "chi", "7705": "Column", "7706": "つ", "7707": "ego", "7708": " inn", "7709": "�", "7710": "ím", "7711": "不过", "7712": " ble", "7713": "ág", "7714": "uff", "7715": "тив", "7716": " training", "7717": " gar", "7718": "zie", "7719": "lik", "7720": " fast", "7721": " sept", "7722": "-a", "7723": "소", "7724": " Mag", "7725": "bes", "7726": "reich", "7727": " peut", "7728": "є", "7729": " Aut", "7730": "elling", "7731": " mel", "7732": "行", "7733": " как", "7734": "uta", "7735": " �", "7736": "ంలో", "7737": " một", "7738": "ะ", "7739": " comment", "7740": " hyp", "7741": "でも", "7742": " egy", "7743": "ном", "7744": " transport", "7745": "rik", "7746": "�", "7747": "env", "7748": " items", "7749": "位", "7750": " School", "7751": "sg", "7752": " rég", "7753": " correl", "7754": " usually", "7755": " había", "7756": "cis", "7757": "update", "7758": " FIG", "7759": " sound", "7760": ".find", "7761": " political", "7762": "FF", "7763": ".Get", "7764": "SON", "7765": " han", "7766": " maintain", "7767": "sche", "7768": "��", "7769": "انی", "7770": " Us", "7771": " fine", "7772": " })\n", "7773": " bound", "7774": "imer", "7775": "atform", "7776": "Acc", "7777": " User", "7778": "нов", "7779": "ство", "7780": "ె", "7781": " offic", "7782": " handle", "7783": " global", "7784": "اك", "7785": "df", "7786": " distance", "7787": " يم", "7788": " Cons", "7789": "etch", "7790": "igr", "7791": " options", "7792": "ità", "7793": "무", "7794": " numer", "7795": "isa", "7796": " getting", "7797": "vas", "7798": " electro", "7799": " sud", "7800": "ντ", "7801": "How", "7802": "ename", "7803": " solo", "7804": " dell", "7805": " outside", "7806": "্ত", "7807": " knowledge", "7808": " forma", "7809": "ocket", "7810": " agre", "7811": " fu", "7812": " և", "7813": "−", "7814": "BS", "7815": " durante", "7816": " vict", "7817": "-\\", "7818": "tres", "7819": "lation", "7820": "ış", "7821": " trav", "7822": " �", "7823": "ван", "7824": "ய", "7825": "sz", "7826": "ski", "7827": "سر", "7828": "్రామ", "7829": "�", "7830": " Den", "7831": "-r", "7832": "#####", "7833": " হ", "7834": " pow", "7835": "eline", "7836": "PO", "7837": ".value", "7838": " Е", "7839": "sa", "7840": " ((", "7841": "ço", "7842": "ikan", "7843": "Default", "7844": " الغ", "7845": " fore", "7846": " English", "7847": " determined", "7848": "True", "7849": " ~", "7850": " identified", "7851": "ania", "7852": "Reg", "7853": "istry", "7854": "';\n\n", "7855": "edia", "7856": " score", "7857": "iki", "7858": " relative", "7859": " February", "7860": "ición", "7861": " instit", "7862": "�", "7863": "lections", "7864": "동", "7865": "-L", "7866": "вер", "7867": " gave", "7868": "esto", "7869": " Si", "7870": " siè", "7871": " Tom", "7872": "adores", "7873": " paper", "7874": " cel", "7875": " تق", "7876": " جم", "7877": " �", "7878": "ở", "7879": " но", "7880": "ша", "7881": " bool", "7882": " �", "7883": "습", "7884": "ï", "7885": " مد", "7886": "け", "7887": " ca", "7888": "aires", "7889": " Wil", "7890": "ų", "7891": " �", "7892": " ए", "7893": " London", "7894": "idades", "7895": " �", "7896": " reduced", "7897": "tex", "7898": " inj", "7899": " مق", "7900": " aspect", "7901": "ظر", "7902": "ент", "7903": "bal", "7904": "É", "7905": " therefore", "7906": "soft", "7907": "Entity", "7908": " Result", "7909": "grad", "7910": "insi", "7911": "height", "7912": " temp", "7913": "*),", "7914": "른", "7915": "ρι", "7916": " Set", "7917": " parent", "7918": "fa", "7919": "erve", "7920": " يت", "7921": " ام", "7922": " च", "7923": " 의", "7924": " necessary", "7925": "ित", "7926": " interpret", "7927": "rote", "7928": "оли", "7929": "ioni", "7930": "jen", "7931": "Util", "7932": "eles", "7933": "진", "7934": " longer", "7935": "igma", "7936": " connection", "7937": "万", "7938": " differences", "7939": " �", "7940": "ન", "7941": " Ter", "7942": "default", "7943": " �", "7944": "orith", "7945": "؛", "7946": "Url", "7947": " له", "7948": " gew", "7949": " tur", "7950": "sl", "7951": " repr", "7952": " میں", "7953": " knew", "7954": "代", "7955": "liche", "7956": "نس", "7957": " عند", "7958": " cast", "7959": "db", "7960": " applied", "7961": "원", "7962": "طة", "7963": "lands", "7964": "rench", "7965": "К", "7966": " sist", "7967": "oding", "7968": "터", "7969": " announ", "7970": " то", "7971": " live", "7972": "QL", "7973": " Figure", "7974": " för", "7975": " flex", "7976": " Mont", "7977": "ograf", "7978": " promot", "7979": "��", "7980": " sequence", "7981": " management", "7982": " faire", "7983": "amma", "7984": " 고", "7985": "MS", "7986": "\\),", "7987": "iner", "7988": "εί", "7989": "rd", "7990": " cat", "7991": " Mit", "7992": "nia", "7993": " ს", "7994": "تى", "7995": " components", "7996": " का", "7997": " también", "7998": " DNA", "7999": "rane", "8000": " profession", "8001": " PC", "8002": "atin", "8003": "iko", "8004": " hands", "8005": "-H", "8006": "rait", "8007": "pite", "8008": " vit", "8009": "تی", "8010": "ị", "8011": "\",\"", "8012": " ihr", "8013": "�", "8014": " candid", "8015": " Mo", "8016": "هد", "8017": " lost", "8018": " International", "8019": "ez", "8020": " boolean", "8021": " release", "8022": "RNA", "8023": "itect", "8024": "�", "8025": "ют", "8026": "arc", "8027": "github", "8028": "ptions", "8029": "gent", "8030": " None", "8031": " limited", "8032": "So", "8033": " behavior", "8034": "ப", "8035": " increasing", "8036": "irt", "8037": "_B", "8038": "ства", "8039": " minim", "8040": "ła", "8041": "rak", "8042": " century", "8043": "ాయ", "8044": " connect", "8045": "oring", "8046": "-cont", "8047": " Met", "8048": " sul", "8049": " entr", "8050": "�്�", "8051": "eler", "8052": " Robert", "8053": "ություն", "8054": "운", "8055": " Thus", "8056": "’ve", "8057": "�", "8058": " 우", "8059": " tend", "8060": "eli", "8061": " images", "8062": "AB", "8063": "ự", "8064": "Layout", "8065": "ən", "8066": " products", "8067": " fort", "8068": "}{\\", "8069": "_list", "8070": " vs", "8071": " �", "8072": " variables", "8073": "ונ", "8074": " مش", "8075": " Os", "8076": " affect", "8077": " produced", "8078": "Instance", "8079": "ლ", "8080": "isf", "8081": "inder", "8082": "              ", "8083": " 조", "8084": "last", "8085": " deliver", "8086": "所以", "8087": " pré", "8088": " built", "8089": " waren", "8090": "طل", "8091": " numbers", "8092": "format", "8093": "\\\\", "8094": " wasn", "8095": "ਾ�", "8096": "nu", "8097": " genes", "8098": "rij", "8099": "、『", "8100": " except", "8101": "hi", "8102": "ై", "8103": " float", "8104": "ocr", "8105": " الي", "8106": " virt", "8107": "ода", "8108": " ther", "8109": "ξ", "8110": "aling", "8111": "dy", "8112": " colon", "8113": "ronic", "8114": " convert", "8115": " speed", "8116": " dynam", "8117": " vent", "8118": "-up", "8119": "ously", "8120": " Gru", "8121": "화", "8122": " matter", "8123": "vey", "8124": " మ", "8125": " fit", "8126": "vere", "8127": "வ", "8128": " trou", "8129": "---", "8130": ".G", "8131": "�", "8132": " reach", "8133": " تر", "8134": "äng", "8135": " nas", "8136": "udo", "8137": " physical", "8138": "љ", "8139": " Sing", "8140": " Х", "8141": " store", "8142": "engan", "8143": " bad", "8144": " alors", "8145": "upport", "8146": "uses", "8147": "ば", "8148": "PS", "8149": "ọ", "8150": " wor", "8151": " cart", "8152": " USA", "8153": "oli", "8154": ".’", "8155": " chall", "8156": " prime", "8157": " disco", "8158": "ிய", "8159": "ही", "8160": " send", "8161": " wherein", "8162": "став", "8163": " constru", "8164": " states", "8165": "ünd", "8166": "struct", "8167": " volume", "8168": "Bar", "8169": " Das", "8170": " Az", "8171": " Di", "8172": "duc", "8173": "ellen", "8174": " format", "8175": "<a", "8176": " کرد", "8177": " bran", "8178": " learn", "8179": "())\n", "8180": "์", "8181": " root", "8182": "iler", "8183": "Point", "8184": "chaft", "8185": "aur", "8186": " concentration", "8187": " concentr", "8188": "artment", "8189": "cope", "8190": " gén", "8191": "ähr", "8192": "../../", "8193": "章", "8194": "ビ", "8195": ".de", "8196": "lu", "8197": " पर", "8198": " taking", "8199": "()\n\n", "8200": "фи", "8201": "ез", "8202": "кі", "8203": ".name", "8204": "бо", "8205": "حي", "8206": " Tur", "8207": " ris", "8208": " epis", "8209": " favor", "8210": " Coun", "8211": "ajo", "8212": "ில", "8213": " �", "8214": " continue", "8215": "base", "8216": "hol", "8217": "abs", "8218": "դ", "8219": "�", "8220": " Count", "8221": " norm", "8222": " provides", "8223": " says", "8224": " tax", "8225": " Mac", "8226": "rage", "8227": " woman", "8228": " Class", "8229": "arter", "8230": "Row", "8231": "lav", "8232": "خل", "8233": " Jos", "8234": "aging", "8235": "νο", "8236": "server", "8237": "udi", "8238": " Tor", "8239": "ания", "8240": " figure", "8241": "Change", "8242": " الآ", "8243": "ré", "8244": "Н", "8245": " অ", "8246": " Michael", "8247": "Stream", "8248": " trong", "8249": "rip", "8250": " Up", "8251": " premier", "8252": "eturn", "8253": " lors", "8254": "!--", "8255": " primer", "8256": " town", "8257": "աց", "8258": "ibil", "8259": "ロ", "8260": "ació", "8261": ".py", "8262": " parts", "8263": "Source", "8264": "_r", "8265": " previously", "8266": "فت", "8267": " effort", "8268": " nue", "8269": "ской", "8270": "itud", "8271": " από", "8272": " published", "8273": "/p", "8274": "런", "8275": "ћ", "8276": " financ", "8277": "��", "8278": " constant", "8279": "انية", "8280": "ს", "8281": " TV", "8282": "\tthis", "8283": "bi", "8284": " High", "8285": "car", "8286": " Kon", "8287": "Link", "8288": " interface", "8289": " negative", "8290": " illustr", "8291": " adapt", "8292": " mehr", "8293": " ա�", "8294": "き", "8295": "adre", "8296": " Mat", "8297": "acing", "8298": "فة", "8299": " domin", "8300": "uge", "8301": "ట", "8302": "aya", "8303": " story", "8304": "host", "8305": " button", "8306": " puis", "8307": " più", "8308": " played", "8309": "<div", "8310": " William", "8311": "\tfor", "8312": "ành", "8313": "�", "8314": "ishing", "8315": "ington", "8316": " compl", "8317": "者", "8318": "uten", "8319": "ingu", "8320": "rot", "8321": " قبل", "8322": "Handler", "8323": " George", "8324": "יה", "8325": "це", "8326": " Α", "8327": " zijn", "8328": " isol", "8329": " την", "8330": "ી", "8331": " infe", "8332": "size", "8333": " Group", "8334": "(R", "8335": "ส", "8336": "ày", "8337": "ovi", "8338": " Et", "8339": " prz", "8340": "том", "8341": " یک", "8342": " Sur", "8343": " Frank", "8344": " هي", "8345": "ethyl", "8346": "יר", "8347": "ßen", "8348": " esta", "8349": "ется", "8350": "美", "8351": "mark", "8352": " questions", "8353": "json", "8354": " experi", "8355": "мо", "8356": "click", "8357": " nem", "8358": "гра", "8359": " 비", "8360": " written", "8361": " frequency", "8362": " expos", "8363": " contre", "8364": " mid", "8365": " obj", "8366": " corresponding", "8367": "ー�", "8368": "ండ", "8369": ".create", "8370": "�", "8371": " �", "8372": " immedi", "8373": " async", "8374": "gar", "8375": "aban", "8376": "rib", "8377": " وي", "8378": " deep", "8379": "times", "8380": " bur", "8381": " someone", "8382": " কর", "8383": "mm", "8384": " friend", "8385": " regular", "8386": " lug", "8387": "су", "8388": " Roy", "8389": " located", "8390": "子", "8391": "amen", "8392": " Sen", "8393": "agne", "8394": " ful", "8395": "HT", "8396": "Per", "8397": "arily", "8398": " render", "8399": "ولة", "8400": " श", "8401": " girl", "8402": "Property", "8403": "owie", "8404": " graph", "8405": "/or", "8406": " goal", "8407": " Object", "8408": " temps", "8409": " տ", "8410": "್ಲ", "8411": " wa", "8412": " lack", "8413": "{{", "8414": "term", "8415": " Du", "8416": " veh", "8417": " progress", "8418": " stim", "8419": "ında", "8420": "eden", "8421": " father", "8422": " Instit", "8423": " mur", "8424": ">>", "8425": "بح", "8426": "TP", "8427": " pick", "8428": "section", "8429": ")=", "8430": "atu", "8431": "Start", "8432": "Str", "8433": "ocol", "8434": "号", "8435": "(data", "8436": "رق", "8437": " priv", "8438": "loor", "8439": "ulate", "8440": "め", "8441": " prep", "8442": "UI", "8443": "local", "8444": "aker", "8445": "ű", "8446": " pub", "8447": " antib", "8448": "atre", "8449": "Builder", "8450": " bul", "8451": " formation", "8452": "rian", "8453": "cy", "8454": "ィ", "8455": " slow", "8456": "ంది", "8457": " Jose", "8458": " né", "8459": "Am", "8460": " presented", "8461": "'il", "8462": " wrong", "8463": ".jpg", "8464": " →", "8465": "level", "8466": " script", "8467": " வ", "8468": " psych", "8469": "له", "8470": "ిక", "8471": " unt", "8472": "uni", "8473": " mys", "8474": "ufact", "8475": "ák", "8476": " Gal", "8477": "iche", "8478": "cles", "8479": " Black", "8480": " hot", "8481": "-R", "8482": " practice", "8483": "Search", "8484": "args", "8485": " 동", "8486": " après", "8487": " Que", "8488": " ద", "8489": "UE", "8490": "'a", "8491": " mother", "8492": "itting", "8493": "wise", "8494": " Further", "8495": "can", "8496": "lad", "8497": " determine", "8498": " Sol", "8499": " recomm", "8500": " dark", "8501": "ով", "8502": "λο", "8503": "]);\n", "8504": "SP", "8505": "ulo", "8506": " feed", "8507": " Carl", "8508": "�", "8509": " të", "8510": "++)", "8511": "ೇ", "8512": " Def", "8513": "End", "8514": "std", "8515": "nost", "8516": " situation", "8517": " Net", "8518": " ki", "8519": "当然", "8520": " issues", "8521": "ATE", "8522": "aient", "8523": "حة", "8524": "alled", "8525": " League", "8526": "fil", "8527": " hier", "8528": "asa", "8529": "onal", "8530": " �", "8531": " recent", "8532": "-de", "8533": " changed", "8534": "CL", "8535": "们", "8536": "ellow", "8537": ")-", "8538": " };\n", "8539": "昭", "8540": " ay", "8541": "บ", "8542": " Dist", "8543": "�", "8544": "\t\t\t\t\t\t\t\t", "8545": " 알", "8546": " �", "8547": "ē", "8548": " bring", "8549": " multi", "8550": " الأم", "8551": " money", "8552": "uster", "8553": " ST", "8554": " oct", "8555": "�", "8556": "”（", "8557": "equ", "8558": " Son", "8559": " remove", "8560": "明", "8561": "terior", "8562": "acht", "8563": " recept", "8564": " approxim", "8565": "որ", "8566": " reaction", "8567": " ratio", "8568": "OL", "8569": "oca", "8570": " هم", "8571": "aks", "8572": " eg", "8573": "dated", "8574": " international", "8575": " dre", "8576": "atabase", "8577": " realiz", "8578": " grande", "8579": "aje", "8580": " couple", "8581": " дру", "8582": " established", "8583": " returned", "8584": "CD", "8585": "portun", "8586": "Label", "8587": " jug", "8588": "-T", "8589": "oir", "8590": " templ", "8591": "partial", "8592": " dop", "8593": "昭和", "8594": "anning", "8595": " Ol", "8596": "ная", "8597": " ин", "8598": " effective", "8599": "ник", "8600": "ική", "8601": "-pro", "8602": " voice", "8603": " sed", "8604": "�", "8605": " everything", "8606": "ieron", "8607": " gli", "8608": "été", "8609": " ಕ", "8610": " بود", "8611": " desde", "8612": " كما", "8613": " �", "8614": " ka", "8615": " அ", "8616": " users", "8617": " simply", "8618": " Although", "8619": " св", "8620": "」「", "8621": "次", "8622": "ும்", "8623": "])", "8624": "торы", "8625": "عب", "8626": " kar", "8627": " segu", "8628": " moved", "8629": "۳", "8630": "%,", "8631": " Gi", "8632": " repe", "8633": " contract", "8634": " mount", "8635": "лю", "8636": " lab", "8637": "();", "8638": " très", "8639": "。（", "8640": " measured", "8641": " countries", "8642": "�", "8643": "-re", "8644": " kt", "8645": " 유", "8646": " strength", "8647": "된", "8648": " computer", "8649": " sac", "8650": "وات", "8651": ".re", "8652": " auto", "8653": "ак", "8654": "umin", "8655": "пу", "8656": " Report", "8657": " *(", "8658": "prime", "8659": "After", "8660": "Product", "8661": "自", "8662": "vor", "8663": " facil", "8664": "arse", "8665": "pload", "8666": "ред", "8667": " ded", "8668": "Http", "8669": "schaft", "8670": "esso", "8671": " disp", "8672": "三", "8673": " processing", "8674": "ње", "8675": "гу", "8676": "bin", "8677": " �", "8678": ">(", "8679": " غير", "8680": " Cour", "8681": "hold", "8682": "面", "8683": " թ", "8684": "sv", "8685": "º", "8686": " email", "8687": " incor", "8688": " contains", "8689": " French", "8690": "vider", "8691": " \\]\n\n", "8692": " ^{", "8693": "Token", "8694": "الة", "8695": "ற", "8696": "comp", "8697": "find", "8698": "そして", "8699": "ريق", "8700": "แ", "8701": "오", "8702": " Out", "8703": "ण", "8704": " save", "8705": " collection", "8706": "iale", "8707": "RI", "8708": " matrix", "8709": "では", "8710": "tab", "8711": "ած", "8712": ".y", "8713": "ights", "8714": "են", "8715": " 있었다", "8716": " تن", "8717": "íst", "8718": "igu", "8719": " containing", "8720": " Peter", "8721": "یم", "8722": " اله", "8723": "assert", "8724": " bat", "8725": " conserv", "8726": " aqu", "8727": " ability", "8728": "거", "8729": " quite", "8730": " consum", "8731": "xy", "8732": " adult", "8733": "ң", "8734": " 세", "8735": "isme", "8736": "地", "8737": "Activity", "8738": "igt", "8739": " jan", "8740": "odo", "8741": " toward", "8742": "ارد", "8743": " '@", "8744": " rapid", "8745": "です", "8746": " bra", "8747": " sites", "8748": " enh", "8749": "inger", "8750": ".as", "8751": " wall", "8752": "۹", "8753": "zia", "8754": "ろ", "8755": "ών", "8756": " المع", "8757": " dengan", "8758": " aim", "8759": "elen", "8760": "期", "8761": "미", "8762": "내", "8763": " Post", "8764": " ა�", "8765": " gest", "8766": "hes", "8767": " գ", "8768": "ат", "8769": " till", "8770": "amos", "8771": ")$", "8772": "NS", "8773": "ró", "8774": " meg", "8775": " roku", "8776": " House", "8777": "ট", "8778": " accur", "8779": "\tint", "8780": "kom", "8781": " decision", "8782": "icol", "8783": " plate", "8784": ".class", "8785": "ogy", "8786": " fix", "8787": ".N", "8788": "צ", "8789": "\");\n\n", "8790": " np", "8791": "])\n", "8792": " ges", "8793": "nder", "8794": "/java", "8795": " hasta", "8796": "세", "8797": "یک", "8798": "間", "8799": "cast", "8800": "fin", "8801": "gression", "8802": " avant", "8803": " cit", "8804": " aan", "8805": " Thomas", "8806": " generally", "8807": " allowed", "8808": " effic", "8809": "�", "8810": " Charles", "8811": "uen", "8812": " 안", "8813": "’ét", "8814": " insert", "8815": "ignment", "8816": "irk", "8817": " diss", "8818": "ным", "8819": "iser", "8820": "〜", "8821": "akan", "8822": " connected", "8823": "phi", "8824": "\";\n\n", "8825": " Det", "8826": " partir", "8827": "лся", "8828": "rome", "8829": "�", "8830": "τι", "8831": "ropri", "8832": " machine", "8833": " individuals", "8834": " Ce", "8835": "roph", "8836": "ина", "8837": " todo", "8838": " phen", "8839": " ak", "8840": "いや", "8841": "«\n\n", "8842": "لام", "8843": " nil", "8844": "aries", "8845": "jer", "8846": "ắ", "8847": "’une", "8848": " forward", "8849": "rum", "8850": " β", "8851": " Array", "8852": "որ�", "8853": "argo", "8854": "에게", "8855": " stay", "8856": "mal", "8857": "state", "8858": "ಡ", "8859": " מ", "8860": " cos", "8861": "igation", "8862": "ancy", "8863": " German", "8864": "�", "8865": "gest", "8866": " Team", "8867": " Dis", "8868": " Sl", "8869": "emble", "8870": " դ", "8871": " mess", "8872": "rought", "8873": "lambda", "8874": "uri", "8875": "Style", "8876": " named", "8877": " unique", "8878": " شد", "8879": "зу", "8880": " năm", "8881": "usqu", "8882": "inct", "8883": "стан", "8884": "imento", "8885": "これ", "8886": "cdot", "8887": " labor", "8888": "話", "8889": " ['", "8890": "cons", "8891": "·", "8892": "분", "8893": " metal", "8894": "idas", "8895": "وية", "8896": " fond", "8897": "(a", "8898": "jection", "8899": "Р", "8900": "MA", "8901": " وع", "8902": " believe", "8903": "group", "8904": " absol", "8905": " maximum", "8906": " Jer", "8907": "력", "8908": " forces", "8909": " اور", "8910": "из", "8911": "ENT", "8912": " XV", "8913": "pert", "8914": " అ", "8915": "ữ", "8916": "マ", "8917": " cru", "8918": "embly", "8919": "unch", "8920": "ذلك", "8921": " 어�", "8922": "یت", "8923": " Max", "8924": " leading", "8925": ".[", "8926": "images", "8927": " broad", "8928": "search", "8929": "UN", "8930": " سي", "8931": "known", "8932": "等", "8933": " File", "8934": " cro", "8935": " attention", "8936": " Time", "8937": "!?", "8938": "ارت", "8939": " module", "8940": "рав", "8941": "uden", "8942": " uses", "8943": " κα", "8944": "Ob", "8945": "ugin", "8946": "್ನ", "8947": " living", "8948": " 미", "8949": " protected", "8950": " இ", "8951": "                                       ", "8952": "Ap", "8953": " doc", "8954": " má", "8955": " equip", "8956": " From", "8957": "rows", "8958": " த", "8959": " مو", "8960": ".push", "8961": " capital", "8962": " View", "8963": "äl", "8964": " particularly", "8965": " 도", "8966": "zu", "8967": " party", "8968": " vector", "8969": "ytes", "8970": "\"><", "8971": " continued", "8972": " Lin", "8973": " vom", "8974": "eno", "8975": "하게", "8976": "ζ", "8977": " internal", "8978": " solid", "8979": "unit", "8980": " η", "8981": " años", "8982": "oni", "8983": "्व", "8984": ".Add", "8985": "'\n\n", "8986": "puis", "8987": " mont", "8988": "idge", "8989": "들이", "8990": "area", "8991": "خرى", "8992": "cut", "8993": "bra", "8994": " towards", "8995": " Hand", "8996": "ership", "8997": "ributed", "8998": "đ", "8999": "”的", "9000": " 더", "9001": "�", "9002": "今", "9003": "ाम", "9004": " constit", "9005": "ình", "9006": "has", "9007": " god", "9008": " kan", "9009": "ينة", "9010": "작", "9011": " fois", "9012": " soon", "9013": " اب", "9014": " movement", "9015": " IV", "9016": "Order", "9017": "ং", "9018": "ון", "9019": "зы", "9020": " Web", "9021": "تص", "9022": " aj", "9023": " relev", "9024": " cab", "9025": "py", "9026": "ский", "9027": " len", "9028": " appropri", "9029": "beta", "9030": "auth", "9031": "ться", "9032": " Now", "9033": " contrast", "9034": "itter", "9035": " ainsi", "9036": "ltim", "9037": " emerg", "9038": "([", "9039": " larger", "9040": " kl", "9041": " extract", "9042": "ně", "9043": "œ", "9044": " influence", "9045": "発", "9046": "ಯ", "9047": ")**", "9048": " session", "9049": "್ಯ", "9050": "也", "9051": "ør", "9052": " لكن", "9053": "ינ", "9054": "nect", "9055": " learning", "9056": " municip", "9057": "uls", "9058": "رن", "9059": "itable", "9060": "};\n", "9061": "ści", "9062": "Control", "9063": " ర", "9064": "ٍ", "9065": " scale", "9066": " tag", "9067": " pes", "9068": "erk", "9069": "estival", "9070": " Auf", "9071": "ection", "9072": "сту", "9073": " prepar", "9074": "style", "9075": " });\n\n", "9076": " While", "9077": " cred", "9078": "бе", "9079": "点", "9080": "Check", "9081": "ías", "9082": "்ற", "9083": "ensions", "9084": " embodiment", "9085": " motor", "9086": " identify", "9087": "hat", "9088": "�", "9089": "hibang", "9090": ".shibang", "9091": " rock", "9092": "pués", "9093": " Other", "9094": " ger", "9095": " bon", "9096": "cin", "9097": "한다", "9098": " uit", "9099": "ध", "9100": "Method", "9101": "organ", "9102": "ورة", "9103": ".size", "9104": "irit", "9105": "summary", "9106": " categ", "9107": " �", "9108": "áng", "9109": "ampionship", "9110": " Mais", "9111": " fib", "9112": "ekt", "9113": " untuk", "9114": " Au", "9115": "ელ", "9116": "ứ", "9117": " ত", "9118": " resid", "9119": "oin", "9120": " <=", "9121": " recon", "9122": "ّة", "9123": "ского", "9124": " 발", "9125": "র্�", "9126": " agr", "9127": " route", "9128": " raz", "9129": " channel", "9130": " Por", "9131": "asion", "9132": "öl", "9133": "ιο", "9134": " note", "9135": "ետ", "9136": " occup", "9137": "\tprivate", "9138": " roz", "9139": "band", "9140": "계", "9141": "啊", "9142": " ন", "9143": " 등", "9144": " Therefore", "9145": "quad", "9146": "斯", "9147": " caused", "9148": " respond", "9149": " ign", "9150": " communication", "9151": "oco", "9152": "obj", "9153": " Super", "9154": " ಅ", "9155": "selves", "9156": "circ", "9157": "ienne", "9158": "CE", "9159": "ús", "9160": " radio", "9161": " depart", "9162": " يق", "9163": "িক", "9164": " cant", "9165": " loop", "9166": "ierre", "9167": "empor", "9168": " register", "9169": " price", "9170": " Rel", "9171": "(){\n", "9172": " ton", "9173": "ifest", "9174": " reached", "9175": "iform", "9176": "uman", "9177": " circuit", "9178": "ٹ", "9179": "يز", "9180": "Me", "9181": " حتى", "9182": "ributes", "9183": "ствен", "9184": "illing", "9185": "remove", "9186": " его", "9187": "�", "9188": " orient", "9189": "augh", "9190": " نفس", "9191": " theory", "9192": " Cast", "9193": "تها", "9194": " poor", "9195": "�്ന", "9196": " equal", "9197": "TO", "9198": "вы", "9199": " 것이", "9200": " policy", "9201": "ін", "9202": " đã", "9203": " Kom", "9204": " margin", "9205": "目", "9206": " visit", "9207": " delle", "9208": "(&", "9209": "曲", "9210": " highly", "9211": "unda", "9212": " geb", "9213": "header", "9214": " Of", "9215": " lay", "9216": " activities", "9217": " గ్రామ", "9218": " >=", "9219": "실", "9220": "_.", "9221": "haps", "9222": "otype", "9223": "تاب", "9224": " все", "9225": " Rob", "9226": "/*", "9227": " weeks", "9228": "aan", "9229": " upper", "9230": "root", "9231": "iny", "9232": "lia", "9233": "ுக", "9234": "aro", "9235": " trop", "9236": " placed", "9237": "ող", "9238": "iren", "9239": "then", "9240": "Menu", "9241": " pare", "9242": " Zeit", "9243": " collect", "9244": " detect", "9245": "parse", "9246": " Let", "9247": " fixed", "9248": " او", "9249": " Prem", "9250": "比", "9251": "िया", "9252": " 방", "9253": " construction", "9254": " ثم", "9255": "efore", "9256": "დ", "9257": " բ", "9258": "لكن", "9259": "Ass", "9260": " вре", "9261": " satisf", "9262": "event", "9263": "ecause", "9264": " ped", "9265": "TE", "9266": " proteins", "9267": "ð", "9268": " wy", "9269": " India", "9270": " telev", "9271": "úblic", "9272": "ifer", "9273": "»\n\n", "9274": "elij", "9275": " basis", "9276": " parameter", "9277": "О", "9278": "-year", "9279": "Create", "9280": " tras", "9281": " resources", "9282": "Repos", "9283": "...\n\n", "9284": " whose", "9285": " click", "9286": " binding", "9287": " storage", "9288": " leave", "9289": "위", "9290": " pil", "9291": "ತ್ತ", "9292": "igger", "9293": "enne", "9294": " cha", "9295": "RA", "9296": " Party", "9297": "(b", "9298": " European", "9299": "}-", "9300": " demand", "9301": " forms", "9302": " ball", "9303": " আ", "9304": " 생각", "9305": " subsequ", "9306": "être", "9307": "ал", "9308": "stra", "9309": " themselves", "9310": " Louis", "9311": " Christian", "9312": "에는", "9313": " education", "9314": " software", "9315": "PD", "9316": " partie", "9317": "tras", "9318": " ச", "9319": "この", "9320": " processes", "9321": "だが", "9322": "_size", "9323": " closed", "9324": "Base", "9325": " counter", "9326": "acement", "9327": "ells", "9328": " مثل", "9329": " tous", "9330": "uda", "9331": "ités", "9332": "-v", "9333": " dra", "9334": "Update", "9335": "CO", "9336": "áz", "9337": "どう", "9338": " ಪ", "9339": " './", "9340": " immun", "9341": "hood", "9342": " Richard", "9343": "ardo", "9344": "意", "9345": "}\\),", "9346": " بعض", "9347": "icture", "9348": " برای", "9349": "ね", "9350": " Ba", "9351": " flu", "9352": " Francis", "9353": " independent", "9354": " sono", "9355": "lan", "9356": " dess", "9357": "izes", "9358": "ingen", "9359": " jou", "9360": " պ", "9361": "금", "9362": " wieder", "9363": "req", "9364": "qrt", "9365": "ン�", "9366": " termin", "9367": " liv", "9368": " takes", "9369": " article", "9370": "imiento", "9371": " medical", "9372": "ụ", "9373": "Load", "9374": " heat", "9375": " clean", "9376": "平成", "9377": " password", "9378": " worked", "9379": " 두", "9380": " Here", "9381": ".)\n", "9382": "知道", "9383": "udio", "9384": " ways", "9385": " buffer", "9386": " America", "9387": "IL", "9388": " hous", "9389": "ós", "9390": " ս", "9391": "äh", "9392": " tissue", "9393": " uno", "9394": "orial", "9395": "mitted", "9396": "rupt", "9397": "ุ", "9398": " пер", "9399": " fields", "9400": "istas", "9401": "illes", "9402": " hij", "9403": " brain", "9404": "arlier", "9405": " charg", "9406": " today", "9407": " instr", "9408": "جر", "9409": " حيث", "9410": "يو", "9411": " hospital", "9412": " alone", "9413": " να", "9414": "Factory", "9415": "וד", "9416": " cele", "9417": "alo", "9418": " west", "9419": "otic", "9420": "ék", "9421": " он", "9422": " দ", "9423": "framework", "9424": " تش", "9425": " mice", "9426": "主", "9427": "pc", "9428": "দ", "9429": " 연", "9430": " उस", "9431": " Luc", "9432": "ετ", "9433": " Club", "9434": " args", "9435": " touch", "9436": " setting", "9437": " Pet", "9438": " İ", "9439": ";\n\n\n", "9440": " eu", "9441": " copy", "9442": "〇", "9443": " tan", "9444": "식", "9445": "ategy", "9446": " wat", "9447": " adjust", "9448": "\\begin", "9449": "üt", "9450": "utt", "9451": " Main", "9452": " secret", "9453": " Open", "9454": " domain", "9455": " ח", "9456": " Gold", "9457": "ming", "9458": " tests", "9459": " yield", "9460": "occ", "9461": " algorith", "9462": " hit", "9463": "امل", "9464": "这样", "9465": "他说", "9466": "ੀ", "9467": "CA", "9468": "оле", "9469": "�", "9470": " produce", "9471": " rates", "9472": "ej", "9473": " Sil", "9474": "IR", "9475": " exhib", "9476": "Do", "9477": " Ok", "9478": " bottom", "9479": " égal", "9480": " road", "9481": " official", "9482": "ਿ", "9483": "mathbb", "9484": " bere", "9485": "نگ", "9486": " origin", "9487": " Gen", "9488": "\tm", "9489": " encore", "9490": " manufact", "9491": " opened", "9492": " meng", "9493": " bud", "9494": "ര", "9495": " online", "9496": " ди", "9497": " פ", "9498": " Á", "9499": "aily", "9500": "coming", "9501": " symbol", "9502": " Fin", "9503": " tel", "9504": "aste", "9505": "osto", "9506": "ప", "9507": "otation", "9508": " SE", "9509": "riter", "9510": "Te", "9511": " depuis", "9512": "‌ش", "9513": "Repository", "9514": "osen", "9515": " Grand", "9516": "Num", "9517": " easy", "9518": "мя", "9519": " tool", "9520": "pective", "9521": " му", "9522": " המ�", "9523": " carried", "9524": ".spring", "9525": "iera", "9526": "mathcal", "9527": "useum", "9528": "'.", "9529": "ெ", "9530": "체", "9531": "ươ", "9532": "}^{\\", "9533": " visual", "9534": " ի", "9535": "리고", "9536": " objects", "9537": "纪", "9538": " Best", "9539": "യ", "9540": "ゃ", "9541": "ャ", "9542": "Char", "9543": " designed", "9544": "ર", "9545": "han", "9546": "به", "9547": " với", "9548": "Pre", "9549": "*)\n", "9550": " ig", "9551": "?\n", "9552": "ああ", "9553": " generated", "9554": " Av", "9555": " json", "9556": " fat", "9557": " Republic", "9558": " cual", "9559": " Del", "9560": "�", "9561": "maz", "9562": " lip", "9563": "יל", "9564": "сы", "9565": "Der", "9566": " medium", "9567": "чен", "9568": "ev", "9569": "قط", "9570": "Call", "9571": "ercial", "9572": " Li", "9573": " East", "9574": " sau", "9575": "agy", "9576": " details", "9577": " Bre", "9578": " steps", "9579": " mac", "9580": " Sci", "9581": " Cam", "9582": " وقد", "9583": "Width", "9584": "adow", "9585": "(r", "9586": "她", "9587": "params", "9588": "১", "9589": "(function", "9590": "度", "9591": " Canada", "9592": ".net", "9593": "ности", "9594": " games", "9595": " Long", "9596": "_path", "9597": " mg", "9598": "ศ", "9599": "bt", "9600": "िल", "9601": "ثير", "9602": "现", "9603": " году", "9604": " هنا", "9605": "URL", "9606": "rent", "9607": "'aut", "9608": "ές", "9609": " génér", "9610": " συ", "9611": " �", "9612": "ция", "9613": "श", "9614": " proposed", "9615": "column", "9616": "没", "9617": " resolution", "9618": "ನ್ನ", "9619": " shape", "9620": " core", "9621": "asons", "9622": "جة", "9623": " Non", "9624": "�", "9625": "ded", "9626": " deal", "9627": " mic", "9628": "vest", "9629": " Bay", "9630": "اده", "9631": " db", "9632": " useful", "9633": "odies", "9634": "ضع", "9635": "Vis", "9636": " stru", "9637": "オ", "9638": " gegen", "9639": " units", "9640": " Martin", "9641": " المح", "9642": "onia", "9643": " Id", "9644": "�", "9645": " couldn", "9646": "ಲ್ಲ", "9647": " или", "9648": " Center", "9649": "ursor", "9650": " ti", "9651": " cuando", "9652": "�", "9653": " ul", "9654": " thick", "9655": " star", "9656": " protect", "9657": "}/", "9658": "िन", "9659": ".on", "9660": "мы", "9661": "ahn", "9662": " impl", "9663": " Ir", "9664": " writing", "9665": "’a", "9666": " мож", "9667": "gle", "9668": " 구", "9669": "ociation", "9670": "Frame", "9671": " dés", "9672": " wel", "9673": "്ത", "9674": "」，", "9675": " fab", "9676": " Nach", "9677": " DE", "9678": "’en", "9679": " 선", "9680": " somet", "9681": " Σ", "9682": " nation", "9683": " Mel", "9684": "ം", "9685": "λλ", "9686": " أنه", "9687": "회", "9688": "arde", "9689": " �", "9690": "ło", "9691": " والم", "9692": " »,", "9693": "개", "9694": "ương", "9695": "ಗಳ", "9696": "ना", "9697": "arios", "9698": " overall", "9699": " pra", "9700": " failed", "9701": " mayor", "9702": "الية", "9703": " essential", "9704": "ां", "9705": " understanding", "9706": "?”\n\n", "9707": "’ai", "9708": "rypt", "9709": "گر", "9710": " board", "9711": " لي", "9712": "otes", "9713": " tech", "9714": " ny", "9715": "ների", "9716": "�", "9717": "ן", "9718": " Roman", "9719": " surpr", "9720": "أس", "9721": " resistance", "9722": "room", "9723": " ру", "9724": " suiv", "9725": "Post", "9726": " announced", "9727": " Rom", "9728": " ар", "9729": "िस", "9730": " share", "9731": ")(", "9732": " sympt", "9733": " Bas", "9734": "quer", "9735": "��", "9736": " Camp", "9737": "ుండ", "9738": " بش", "9739": " England", "9740": "nya", "9741": " optim", "9742": " metab", "9743": " throughout", "9744": "든", "9745": "ounter", "9746": "�", "9747": "anner", "9748": " Since", "9749": "isions", "9750": " office", "9751": " Lib", "9752": " todos", "9753": " Pan", "9754": " Jac", "9755": "ße", "9756": " الله", "9757": " зна", "9758": "andon", "9759": " jusqu", "9760": "世纪", "9761": "show", "9762": "Д", "9763": " الز", "9764": "看", "9765": " एक", "9766": " saf", "9767": "inese", "9768": "ин", "9769": " وهو", "9770": " Spec", "9771": "<String", "9772": " ik", "9773": "ícul", "9774": "ING", "9775": " follows", "9776": " 당", "9777": "ြ", "9778": " Nord", "9779": " finally", "9780": "Valid", "9781": " earlier", "9782": "inci", "9783": " liqu", "9784": "�", "9785": " Press", "9786": "得", "9787": "家", "9788": "会", "9789": "렇", "9790": "ilo", "9791": "یش", "9792": " monitor", "9793": "PC", "9794": " argument", "9795": "pected", "9796": " Europ", "9797": "мі", "9798": " Hall", "9799": "rad", "9800": "には", "9801": " hav", "9802": "iciency", "9803": " participants", "9804": ".io", "9805": "안", "9806": " 관", "9807": "iker", "9808": "lice", "9809": " Rem", "9810": " catal", "9811": "�", "9812": " siècle", "9813": "page", "9814": " Arch", "9815": "رت", "9816": "`.", "9817": " fight", "9818": " treated", "9819": " pada", "9820": "aga", "9821": "zz", "9822": "node", "9823": "isen", "9824": "Back", "9825": " Your", "9826": "ಾಗ", "9827": " scient", "9828": "_N", "9829": " empty", "9830": "ание", "9831": " brought", "9832": "keit", "9833": " regions", "9834": "լ", "9835": "üh", "9836": "nav", "9837": " Person", "9838": "ே", "9839": " perfect", "9840": " Also", "9841": "じ", "9842": "That", "9843": "clusion", "9844": " revealed", "9845": " première", "9846": "idente", "9847": ".text", "9848": "ROM", "9849": " advant", "9850": " Esp", "9851": "niques", "9852": " passed", "9853": "_w", "9854": "ока", "9855": "current", "9856": " Game", "9857": "Child", "9858": "প", "9859": " 불", "9860": " ولكن", "9861": " გ", "9862": "atsapp", "9863": " اع", "9864": "كم", "9865": "theta", "9866": " alter", "9867": " Marc", "9868": "êt", "9869": "ின", "9870": " economic", "9871": "ederal", "9872": " compan", "9873": " brit", "9874": " tumor", "9875": " был", "9876": "long", "9877": " skin", "9878": " Name", "9879": " inner", "9880": "デ", "9881": " }}", "9882": " materials", "9883": "着", "9884": "gel", "9885": "oval", "9886": " degree", "9887": " 결", "9888": "ád", "9889": " ye", "9890": "果", "9891": "سة", "9892": " ${", "9893": "』\n\n", "9894": " قر", "9895": " ale", "9896": " comes", "9897": "isten", "9898": " প্র", "9899": " επ", "9900": " ό", "9901": " également", "9902": "dir", "9903": " resulting", "9904": ".springframework", "9905": " removed", "9906": " 영", "9907": "áp", "9908": " trois", "9909": "lang", "9910": "Command", "9911": "М", "9912": "دد", "9913": "्ट", "9914": " (_", "9915": "问", "9916": " phone", "9917": " tree", "9918": "IP", "9919": "ден", "9920": "sw", "9921": "'ex", "9922": "enda", "9923": "imi", "9924": " wide", "9925": " tent", "9926": "àn", "9927": " يمكن", "9928": " names", "9929": "ագ", "9930": "Title", "9931": " seine", "9932": "先", "9933": ".Text", "9934": "ಸ", "9935": "lı", "9936": "ाय", "9937": "osc", "9938": " viv", "9939": "ánd", "9940": "(),\n", "9941": "』（", "9942": " React", "9943": " combination", "9944": " və", "9945": " cours", "9946": " opportun", "9947": "=>", "9948": "ười", "9949": " middle", "9950": "aja", "9951": " watch", "9952": "elo", "9953": " Ger", "9954": " deutsch", "9955": "orb", "9956": " wrote", "9957": " στη", "9958": " elev", "9959": " Off", "9960": " separate", "9961": " оп", "9962": " suite", "9963": " את", "9964": "-N", "9965": "ો", "9966": " Our", "9967": " donde", "9968": "build", "9969": "Init", "9970": " Leg", "9971": "��", "9972": "Mode", "9973": "?\"\n\n", "9974": " thread", "9975": "�്ക", "9976": " therm", "9977": " fam", "9978": " sit", "9979": "িত", "9980": " reduce", "9981": "orig", "9982": " Μ", "9983": "TS", "9984": " Sk", "9985": " allows", "9986": " werd", "9987": " jam", "9988": "enge", "9989": "선", "9990": " drive", "9991": " Ell", "9992": "حر", "9993": "vec", "9994": "istan", "9995": " mars", "9996": "кон", "9997": " substr", "9998": "ần", "9999": " novel", "10000": " سال", "10001": "/t", "10002": " ek", "10003": "udad", "10004": "aki", "10005": " slight", "10006": " carbon", "10007": " Mer", "10008": "日本", "10009": " supported", "10010": " Film", "10011": "note", "10012": " police", "10013": " vu", "10014": "ří", "10015": " cs", "10016": " مخ", "10017": "ailed", "10018": " train", "10019": " moins", "10020": " gan", "10021": "ued", "10022": "inh", "10023": " Isra", "10024": " Joh", "10025": "ental", "10026": "_pro", "10027": " 성", "10028": "block", "10029": "icrosoft", "10030": "ös", "10031": "acters", "10032": "ép", "10033": " Cup", "10034": "atro", "10035": " avoid", "10036": "ché", "10037": "prim", "10038": "��", "10039": " ×", "10040": "��", "10041": " delete", "10042": "endance", "10043": "단", "10044": "ես", "10045": " isn", "10046": "ある", "10047": " kön", "10048": "，《", "10049": "ène", "10050": "mann", "10051": " suggested", "10052": "arts", "10053": " Tu", "10054": " comput", "10055": " initi", "10056": "erior", "10057": " ول", "10058": " Da", "10059": "్త", "10060": " rang", "10061": "ಾರ", "10062": "isé", "10063": "allel", "10064": " دی", "10065": " kaj", "10066": " lock", "10067": "మీ", "10068": " FC", "10069": " Ч", "10070": "iforn", "10071": "들은", "10072": "գ", "10073": " dari", "10074": "aign", "10075": ".con", "10076": " military", "10077": "�", "10078": " See", "10079": " وفي", "10080": "Task", "10081": "_h", "10082": "ركة", "10083": "undle", "10084": "ამ", "10085": "év", "10086": " أيض", "10087": " Georg", "10088": " civil", "10089": "мер", "10090": "ニ", "10091": " пе", "10092": "ئيس", "10093": "lymp", "10094": " plas", "10095": "ū", "10096": "kg", "10097": " rule", "10098": " security", "10099": " χ", "10100": "aka", "10101": "ха", "10102": "მ", "10103": " intent", "10104": " confir", "10105": "ns", "10106": "Null", "10107": "First", "10108": " Pour", "10109": " Event", "10110": "।\n\n", "10111": " Oper", "10112": " fi", "10113": "sta", "10114": "output", "10115": " أس", "10116": "ம", "10117": "gio", "10118": " therapy", "10119": " coming", "10120": "ły", "10121": " cada", "10122": " Cre", "10123": " وكان", "10124": "overn", "10125": " مست", "10126": " Street", "10127": "`\n\n", "10128": "uma", "10129": " River", "10130": " classes", "10131": "whatsapp", "10132": "……”", "10133": " Mr", "10134": " Dies", "10135": "\tf", "10136": " parents", "10137": " structures", "10138": " meaning", "10139": "ifi", "10140": "Options", "10141": " خلال", "10142": " Kir", "10143": " سر", "10144": " Music", "10145": "VID", "10146": "�", "10147": "admin", "10148": " exerc", "10149": "ят", "10150": "हीं", "10151": "ierte", "10152": " utiliz", "10153": "ướ", "10154": " density", "10155": "’av", "10156": " nouve", "10157": "想", "10158": "న్న", "10159": " UK", "10160": " ai", "10161": " 아니", "10162": " charge", "10163": " webs", "10164": "EX", "10165": " Um", "10166": " +\n", "10167": "isión", "10168": " réal", "10169": " characteristics", "10170": "                         ", "10171": " Cong", "10172": " regul", "10173": " cz", "10174": " nj", "10175": " diam", "10176": " kun", "10177": " gives", "10178": "agon", "10179": " کو", "10180": "하여", "10181": " autor", "10182": "чно", "10183": "contr", "10184": "while", "10185": " completely", "10186": "ғ", "10187": "LECT", "10188": " hair", "10189": "tml", "10190": " 신", "10191": "atas", "10192": " tele", "10193": " préc", "10194": " Ges", "10195": " AD", "10196": " difer", "10197": " stream", "10198": " Pop", "10199": "ech", "10200": "ास", "10201": "sec", "10202": " 서", "10203": " expressed", "10204": "Ext", "10205": " comun", "10206": " Soci", "10207": " 자신", "10208": "_IN", "10209": "vet", "10210": "nik", "10211": " نی", "10212": "*/", "10213": " jul", "10214": "طر", "10215": " Work", "10216": "оги", "10217": " pair", "10218": "zione", "10219": " },", "10220": " liber", "10221": "င", "10222": " male", "10223": "weight", "10224": " analys", "10225": "ాన", "10226": "”,", "10227": "াল", "10228": " According", "10229": " voc", "10230": "েন", "10231": " tid", "10232": "win", "10233": " president", "10234": " basic", "10235": " reflect", "10236": " synth", "10237": " độ", "10238": "client", "10239": " سب", "10240": " 개", "10241": "德", "10242": "atar", "10243": " Australia", "10244": "aper", "10245": "tee", "10246": ".v", "10247": " perman", "10248": " kann", "10249": " appears", "10250": "ateur", "10251": "apa", "10252": "قر", "10253": " rob", "10254": " configuration", "10255": " المد", "10256": "バ", "10257": " findings", "10258": " terminal", "10259": "물", "10260": "…\n\n", "10261": "rest", "10262": " شي", "10263": "});\n", "10264": " Type", "10265": "LA", "10266": "iej", "10267": "null", "10268": "amily", "10269": "onio", "10270": " 남", "10271": " tab", "10272": "Open", "10273": "αρ", "10274": ".’\n\n", "10275": "�", "10276": "ム", "10277": "phone", "10278": " ק", "10279": " phosph", "10280": "namespace", "10281": " recorded", "10282": "ront", "10283": "ண", "10284": " choice", "10285": " interval", "10286": " lu", "10287": " Π", "10288": "wood", "10289": "_file", "10290": " مج", "10291": "ји", "10292": "ਰ", "10293": "κε", "10294": " Bet", "10295": " digital", "10296": "ٔ", "10297": "cape", "10298": " Day", "10299": ".sub", "10300": " أص", "10301": " sleep", "10302": "라고", "10303": " المر", "10304": " appropriate", "10305": "related", "10306": " Miss", "10307": " Smith", "10308": "σε", "10309": "num", "10310": " لت", "10311": "Read", "10312": " éc", "10313": "ژ", "10314": " edge", "10315": "‌ک", "10316": "ుండి", "10317": " operations", "10318": " HT", "10319": " 또", "10320": "اعة", "10321": " fon", "10322": " Second", "10323": " 문", "10324": "ੇ", "10325": "ίν", "10326": "message", "10327": " Most", "10328": " commit", "10329": "英", "10330": " White", "10331": " technology", "10332": " ej", "10333": "Foot", "10334": "ово", "10335": " Division", "10336": "合", "10337": "zet", "10338": "Card", "10339": " ker", "10340": "plicit", "10341": " shall", "10342": "भ", "10343": " beginning", "10344": " True", "10345": "_ST", "10346": "stein", "10347": "enen", "10348": " starting", "10349": " President", "10350": " Mary", "10351": "izont", "10352": "什", "10353": "’h", "10354": " appeared", "10355": " Vict", "10356": "child", "10357": " تت", "10358": " nella", "10359": "cs", "10360": " ר", "10361": "/?", "10362": " vida", "10363": "uje", "10364": "ائل", "10365": " któ", "10366": " నుండి", "10367": "igration", "10368": "****************", "10369": " 후", "10370": "nel", "10371": " Method", "10372": " conducted", "10373": "عت", "10374": " critical", "10375": "ptr", "10376": "_A", "10377": "тер", "10378": " المس", "10379": "Filter", "10380": "\\,", "10381": "ిన", "10382": "ặ", "10383": "/h", "10384": " dead", "10385": " student", "10386": " County", "10387": "Game", "10388": "_H", "10389": "_RE", "10390": "isl", "10391": " Van", "10392": "vant", "10393": " platform", "10394": " জ", "10395": "حو", "10396": " quando", "10397": "RL", "10398": "�்த", "10399": " remain", "10400": "лан", "10401": " roll", "10402": " eines", "10403": "து", "10404": "duction", "10405": " anche", "10406": "メ", "10407": " calculated", "10408": " propos", "10409": "iling", "10410": " assist", "10411": " elimin", "10412": "ieren", "10413": "ห", "10414": "oder", "10415": "ју", "10416": "բ", "10417": "_re", "10418": " testing", "10419": "zte", "10420": " Tra", "10421": " easily", "10422": "場", "10423": " heard", "10424": " Kar", "10425": "ük", "10426": "했", "10427": " leurs", "10428": "\\in", "10429": " throws", "10430": " existing", "10431": " opening", "10432": "heit", "10433": "'en", "10434": "های", "10435": " btn", "10436": " Att", "10437": "�", "10438": " Church", "10439": " selection", "10440": "�", "10441": "Whats", "10442": "md", "10443": "或", "10444": "ieurs", "10445": "IX", "10446": " nú", "10447": " strateg", "10448": " Thanks", "10449": "arian", "10450": " 못", "10451": "-K", "10452": " functional", "10453": "ého", "10454": " ولا", "10455": " $(", "10456": "�", "10457": "ву", "10458": "الت", "10459": "就是", "10460": "start", "10461": "افة", "10462": " lic", "10463": " sometimes", "10464": " Vir", "10465": " zen", "10466": "և", "10467": " ran", "10468": "Module", "10469": " rules", "10470": " Tour", "10471": " στο", "10472": "enty", "10473": " During", "10474": " rank", "10475": "ارات", "10476": " Ö", "10477": " receive", "10478": " Ма", "10479": " defe", "10480": "voir", "10481": "atrix", "10482": " guard", "10483": " devices", "10484": " zwei", "10485": " purpose", "10486": " kor", "10487": " exception", "10488": "Po", "10489": "rim", "10490": "ալ", "10491": "적인", "10492": " jour", "10493": " female", "10494": "什么", "10495": " Law", "10496": " agent", "10497": "oration", "10498": " പ", "10499": "miss", "10500": " confirm", "10501": " ಹ", "10502": "stream", "10503": " statist", "10504": "TC", "10505": " entry", "10506": "ilon", "10507": ".put", "10508": "Block", "10509": " feet", "10510": " AS", "10511": " bacter", "10512": "Ste", "10513": " relatively", "10514": "‐", "10515": " أكثر", "10516": " Κ", "10517": " subs", "10518": " Bern", "10519": " ud", "10520": " incorpor", "10521": " rend", "10522": " Ка", "10523": " API", "10524": "views", "10525": "ič", "10526": " 물", "10527": " Ü", "10528": "ոն", "10529": " onto", "10530": "’était", "10531": "何", "10532": " remember", "10533": " quickly", "10534": "ただ", "10535": "akes", "10536": "cial", "10537": " wonder", "10538": " nam", "10539": "ae", "10540": " linear", "10541": " था", "10542": " ג", "10543": "perties", "10544": "nte", "10545": "�다", "10546": "起", "10547": "Format", "10548": " currently", "10549": "】", "10550": " reduction", "10551": " capacity", "10552": "zeich", "10553": "gin", "10554": "Stack", "10555": "?\"", "10556": "olit", "10557": " Mas", "10558": " yards", "10559": "lock", "10560": "status", "10561": "ashington", "10562": " Jes", "10563": " ils", "10564": " verb", "10565": "Bo", "10566": "VD", "10567": "tty", "10568": " electr", "10569": "aught", "10570": " swe", "10571": " رو", "10572": "rá", "10573": "'E", "10574": "BA", "10575": " dog", "10576": " reli", "10577": "ping", "10578": "(name", "10579": " transl", "10580": " anyone", "10581": "eten", "10582": "당", "10583": " seb", "10584": "Top", "10585": "ない", "10586": " Polit", "10587": "Address", "10588": "녀", "10589": " pros", "10590": " על", "10591": " improve", "10592": " sources", "10593": "цы", "10594": "holder", "10595": ")،", "10596": " Year", "10597": " demonstrated", "10598": "ugh", "10599": "ying", "10600": "cert", "10601": " travel", "10602": "ians", "10603": " hers", "10604": "кол", "10605": " damage", "10606": " ital", "10607": " �", "10608": "Player", "10609": "：《", "10610": "íc", "10611": " wid", "10612": "�", "10613": " interaction", "10614": "![", "10615": " insp", "10616": " generate", "10617": "oly", "10618": "род", "10619": " Stadt", "10620": "fic", "10621": "ieux", "10622": "لف", "10623": " kur", "10624": "GF", "10625": "bur", "10626": " highest", "10627": "Header", "10628": "法", "10629": "ז", "10630": "レビ", "10631": " которы", "10632": "`\n", "10633": " techniques", "10634": " gold", "10635": " Govern", "10636": " actions", "10637": " looks", "10638": " Two", "10639": "Gener", "10640": "ª", "10641": " (�", "10642": " fel", "10643": "ifs", "10644": " perd", "10645": " Ca", "10646": " neigh", "10647": "sqrt", "10648": "ensor", "10649": "äch", "10650": " infection", "10651": " sets", "10652": "ến", "10653": " ş", "10654": "aupt", "10655": " Techn", "10656": " noted", "10657": " cham", "10658": "itos", "10659": "Je", "10660": "anie", "10661": "alar", "10662": "omic", "10663": "yond", "10664": "atan", "10665": "-term", "10666": " casa", "10667": "IM", "10668": " 따", "10669": "米", "10670": " Las", "10671": "ек", "10672": " Union", "10673": " oil", "10674": " statement", "10675": "ầu", "10676": " legal", "10677": "Auth", "10678": " please", "10679": " letter", "10680": "essa", "10681": "\"/", "10682": "عر", "10683": "like", "10684": "小", "10685": " proport", "10686": "ervices", "10687": "كي", "10688": " हैं", "10689": " Lo", "10690": " moy", "10691": " Che", "10692": "گی", "10693": " exactly", "10694": "eds", "10695": " composition", "10696": "Cell", "10697": " prze", "10698": "них", "10699": "ते", "10700": "ipped", "10701": " ந", "10702": " են", "10703": " NS", "10704": "另", "10705": "jon", "10706": " Unter", "10707": "لس", "10708": " ने", "10709": "カ", "10710": " تص", "10711": " للم", "10712": "وں", "10713": "克", "10714": " remains", "10715": " վ", "10716": "�", "10717": "];\n\n", "10718": " reading", "10719": "اند", "10720": "ência", "10721": " returns", "10722": "rig", "10723": " Health", "10724": "Attribute", "10725": "Hel", "10726": " scen", "10727": "اذ", "10728": "ాయి", "10729": "فض", "10730": "비", "10731": "fty", "10732": "nek", "10733": "iance", "10734": "rowser", "10735": " dalam", "10736": " ..", "10737": " pob", "10738": " conflic", "10739": " carry", "10740": " shift", "10741": " rights", "10742": " người", "10743": "Integer", "10744": "ход", "10745": "że", "10746": "Ab", "10747": "кра", "10748": "ър", "10749": " ring", "10750": "\telse", "10751": "那么", "10752": " smaller", "10753": "ifically", "10754": "under", "10755": " neut", "10756": "riz", "10757": " же", "10758": "auc", "10759": " Book", "10760": "ết", "10761": "参", "10762": ":\"", "10763": "psilon", "10764": "author", "10765": "plete", "10766": " �", "10767": "Edit", "10768": "ూర", "10769": " decided", "10770": " indicated", "10771": " ell", "10772": "ության", "10773": "xture", "10774": "break", "10775": ".$", "10776": " lugar", "10777": " procedure", "10778": "్ల", "10779": "ól", "10780": "imens", "10781": "ュ", "10782": "ൽ", "10783": " north", "10784": " гра", "10785": "要", "10786": "wick", "10787": " Germany", "10788": " Service", "10789": " hope", "10790": " soll", "10791": " died", "10792": " applications", "10793": "Lo", "10794": "Provider", "10795": " año", "10796": " Henry", "10797": "сте", "10798": " regist", "10799": "ului", "10800": " بم", "10801": " external", "10802": " 때문", "10803": "いう", "10804": "ско", "10805": " purch", "10806": " 저", "10807": "Aut", "10808": " Chinese", "10809": "taient", "10810": "ോ", "10811": "obe", "10812": " Bud", "10813": "entity", "10814": " RE", "10815": " Wal", "10816": " Э", "10817": "ർ", "10818": "ût", "10819": "Part", "10820": "_O", "10821": "ymbol", "10822": "rod", "10823": "िए", "10824": " weak", "10825": "uego", "10826": "ận", "10827": " protest", "10828": "\t\t\t\t\t\t\t", "10829": "“,", "10830": " race", "10831": "river", "10832": " Kl", "10833": "aman", "10834": "inin", "10835": " token", "10836": "printf", "10837": "ög", "10838": "के", "10839": "FIG", "10840": " contro", "10841": " firm", "10842": " bond", "10843": " ת", "10844": " ing", "10845": "adr", "10846": " واح", "10847": "ruit", "10848": " 스", "10849": "Container", "10850": "ville", "10851": "可是", "10852": " Sum", "10853": " �", "10854": "ად", "10855": "values", "10856": "Empty", "10857": " Bur", "10858": "FC", "10859": "గ", "10860": "main", "10861": "“�", "10862": " neur", "10863": "ೊ", "10864": "ston", "10865": " Cla", "10866": "{tab", "10867": " requires", "10868": " Mach", "10869": " :\n", "10870": " حد", "10871": " suo", "10872": " �", "10873": " Flor", "10874": " Berlin", "10875": "相", "10876": " Green", "10877": " tres", "10878": "DA", "10879": "äs", "10880": " mand", "10881": "-il", "10882": " conj", "10883": "습니다", "10884": "Icon", "10885": "enti", "10886": " fully", "10887": "Refere", "10888": " Cu", "10889": " Company", "10890": " failure", "10891": "POST", "10892": "ód", "10893": " zone", "10894": " 것이다", "10895": "وى", "10896": " تج", "10897": "Height", "10898": "pling", "10899": "ил", "10900": " react", "10901": " �", "10902": " ва", "10903": "amiento", "10904": "Items", "10905": " Mot", "10906": " Maria", "10907": " ones", "10908": "assen", "10909": "{tabular", "10910": " mentioned", "10911": " ziren", "10912": " immediately", "10913": " Central", "10914": " technique", "10915": "속", "10916": " nod", "10917": "utter", "10918": " ನ", "10919": " ظ", "10920": "행", "10921": " بأن", "10922": "وة", "10923": " industry", "10924": "bour", "10925": " Ale", "10926": " soit", "10927": "ادي", "10928": " monde", "10929": "**（", "10930": "embl", "10931": " cav", "10932": " vac", "10933": "$,", "10934": "ính", "10935": " seemed", "10936": " Bi", "10937": " Daniel", "10938": " Over", "10939": " introduced", "10940": " इस", "10941": " substant", "10942": " í", "10943": " 그러", "10944": " ville", "10945": "ango", "10946": "inner", "10947": "pecific", "10948": "ふ", "10949": "�", "10950": "ブ", "10951": " ор", "10952": "ೂ", "10953": "_set", "10954": "ค", "10955": " ampl", "10956": "ovo", "10957": " errors", "10958": "atically", "10959": " expand", "10960": " consequ", "10961": "ტ", "10962": "০", "10963": " Math", "10964": " emot", "10965": "oup", "10966": " zwischen", "10967": "ို�", "10968": " template", "10969": " nut", "10970": "Buffer", "10971": "})\n", "10972": "ನ್ನು", "10973": " successful", "10974": " };\n\n", "10975": "Position", "10976": " seiner", "10977": " \"/", "10978": "yan", "10979": " controller", "10980": "ibly", "10981": " sang", "10982": " indicate", "10983": " lag", "10984": "rer", "10985": "생", "10986": " Windows", "10987": " cré", "10988": "лек", "10989": " friends", "10990": " Minister", "10991": " blue", "10992": "оку", "10993": "なん", "10994": "onna", "10995": "reshold", "10996": "ща", "10997": "=True", "10998": "wers", "10999": " oppos", "11000": "存", "11001": "》、", "11002": "േ", "11003": "iders", "11004": " coordin", "11005": "sigma", "11006": " becomes", "11007": "уд", "11008": "aram", "11009": "omy", "11010": " país", "11011": " Ev", "11012": " ور", "11013": "\\).", "11014": " भी", "11015": "uis", "11016": "ampion", "11017": "{\n\n", "11018": "which", "11019": "وه", "11020": "št", "11021": " aug", "11022": "从", "11023": "?.", "11024": " container", "11025": "երը", "11026": " primera", "11027": " College", "11028": "۵", "11029": "osoph", "11030": "(_", "11031": " وس", "11032": "ских", "11033": " moi", "11034": "ाह", "11035": " glass", "11036": "ిం�", "11037": " ku", "11038": "اية", "11039": "全", "11040": " kont", "11041": "Sche", "11042": "Connection", "11043": "타", "11044": "ほ", "11045": " sab", "11046": " العالم", "11047": " church", "11048": " después", "11049": "&k", "11050": " showing", "11051": " saying", "11052": " nun", "11053": " delay", "11054": "�", "11055": "iring", "11056": "ested", "11057": "eto", "11058": "یل", "11059": "nych", "11060": " impos", "11061": "՝", "11062": " bomb", "11063": " verd", "11064": " नहीं", "11065": " Τ", "11066": "ifornia", "11067": " Mex", "11068": "ικό", "11069": " 받", "11070": "edit", "11071": " Research", "11072": " fur", "11073": "ikt", "11074": " distinct", "11075": "apon", "11076": " Deutsch", "11077": "య", "11078": "いる", "11079": "ходи", "11080": " sowie", "11081": "ettings", "11082": "font", "11083": " activation", "11084": " characters", "11085": "�", "11086": " Bes", "11087": " Nav", "11088": "ട", "11089": "items", "11090": " moving", "11091": " انت", "11092": " remained", "11093": " detection", "11094": " ihm", "11095": " -->\n", "11096": " نم", "11097": "etzt", "11098": "IF", "11099": " после", "11100": " convers", "11101": " extrem", "11102": "Dialog", "11103": "차", "11104": " hogy", "11105": " bank", "11106": " court", "11107": "itted", "11108": " ],\n", "11109": " это", "11110": " completed", "11111": "ší", "11112": " Top", "11113": "лав", "11114": " lleg", "11115": " animals", "11116": " detected", "11117": "ifications", "11118": " zero", "11119": " cycle", "11120": "etime", "11121": "�", "11122": "Off", "11123": "illo", "11124": " différ", "11125": "icate", "11126": "ologie", "11127": "\\[\\", "11128": "ис", "11129": " emp", "11130": "PT", "11131": " intr", "11132": "군", "11133": "ifying", "11134": " dieser", "11135": "OM", "11136": " resource", "11137": " combined", "11138": " Ա", "11139": "Case", "11140": "istes", "11141": " kept", "11142": "anel", "11143": " سے", "11144": " wave", "11145": " apply", "11146": " hem", "11147": " category", "11148": "Json", "11149": "두", "11150": " Sin", "11151": " chrom", "11152": "�", "11153": "\\({}^{\\", "11154": " minor", "11155": "aza", "11156": " ات", "11157": " relevant", "11158": "yy", "11159": " .\n\n", "11160": "�u", "11161": " prepared", "11162": "न्�", "11163": "ಮ", "11164": " Tim", "11165": " À", "11166": "Delta", "11167": "-k", "11168": " trab", "11169": "��", "11170": "注", "11171": " PD", "11172": " బ", "11173": "�", "11174": "－", "11175": "ಿಸ", "11176": "sm", "11177": "ustomer", "11178": "şt", "11179": "endar", "11180": " …", "11181": "１", "11182": " kg", "11183": "าร", "11184": " antes", "11185": "/icon", "11186": "Output", "11187": " Championship", "11188": ".go", "11189": "نية", "11190": " older", "11191": " rare", "11192": " ку", "11193": " analyz", "11194": "록", "11195": "ستان", "11196": " sea", "11197": "oche", "11198": " Seg", "11199": "Thread", "11200": "ąc", "11201": " polít", "11202": " ವ", "11203": " arms", "11204": "Fe", "11205": " package", "11206": " �", "11207": ".cont", "11208": "്ര", "11209": "മ", "11210": " tip", "11211": "rapper", "11212": " staff", "11213": "EL", "11214": "nej", "11215": "كت", "11216": " gal", "11217": " années", "11218": "aden", "11219": " override", "11220": " virtual", "11221": "_v", "11222": ",'", "11223": " green", "11224": " equival", "11225": "war", "11226": " Commun", "11227": " Public", "11228": " Rod", "11229": " Ho", "11230": "ோ", "11231": " autres", "11232": "يش", "11233": " <!--", "11234": "only", "11235": " conver", "11236": "urer", "11237": " floor", "11238": " Washington", "11239": " nord", "11240": " poder", "11241": " عمل", "11242": " vas", "11243": " naj", "11244": " spread", "11245": " Prof", "11246": "reci", "11247": "μο", "11248": " experiments", "11249": " define", "11250": " association", "11251": " Direct", "11252": "�", "11253": "ნ", "11254": "vier", "11255": " relation", "11256": "ecute", "11257": "Down", "11258": " voltage", "11259": " myself", "11260": " avoir", "11261": " nap", "11262": "ách", "11263": " eight", "11264": "هود", "11265": " south", "11266": " ole", "11267": " approximately", "11268": "特", "11269": " ख", "11270": ".*\n", "11271": "린", "11272": ")\\)", "11273": "illet", "11274": "chat", "11275": " whereas", "11276": " serie", "11277": " examples", "11278": " Ha", "11279": "/P", "11280": "anal", "11281": " ав", "11282": " seven", "11283": "학", "11284": "options", "11285": "ër", "11286": " transition", "11287": "zent", "11288": "Т", "11289": " щ", "11290": "uno", "11291": " أب", "11292": "િ", "11293": "且", "11294": " beaut", "11295": "issance", "11296": "ải", "11297": " Op", "11298": "styles", "11299": " supply", "11300": " ס", "11301": " liquid", "11302": " toute", "11303": "faces", "11304": " serious", "11305": "�", "11306": " players", "11307": "ಿದ", "11308": " >\n", "11309": "Max", "11310": "ket", "11311": "\\end", "11312": "^{-", "11313": "Eng", "11314": " authors", "11315": " إلي", "11316": "зна", "11317": " ez", "11318": " pays", "11319": " Program", "11320": " �", "11321": "atura", "11322": "asis", "11323": "」。", "11324": "َّ", "11325": "ウ", "11326": "دام", "11327": "(l", "11328": "-time", "11329": " library", "11330": "!\n", "11331": " Fern", "11332": "_time", "11333": " José", "11334": " τον", "11335": " eing", "11336": "Sp", "11337": " configure", "11338": " воз", "11339": "false", "11340": "ialize", "11341": "ில்", "11342": "��", "11343": " resist", "11344": " behavi", "11345": "edi", "11346": "بار", "11347": "'ét", "11348": " administration", "11349": "iverse", "11350": "omain", "11351": "심", "11352": "��", "11353": " Ш", "11354": " push", "11355": "ieler", "11356": "аль", "11357": " που", "11358": " Tod", "11359": " lí", "11360": "τά", "11361": "edy", "11362": " ومن", "11363": "\tvar", "11364": "IO", "11365": "YPE", "11366": "Grid", "11367": " Vor", "11368": " division", "11369": " Hel", "11370": " novembre", "11371": " centre", "11372": " hund", "11373": " pull", "11374": " Santa", "11375": " Mur", "11376": "áv", "11377": "abet", "11378": " Gro", "11379": "ун", "11380": "msg", "11381": "rican", "11382": " ў", "11383": " stated", "11384": " Play", "11385": " Stat", "11386": " animal", "11387": " adopt", "11388": "PP", "11389": "++;\n", "11390": "].\n\n", "11391": " ఉన్న", "11392": "വ", "11393": "olid", "11394": "osta", "11395": "iced", "11396": " mobile", "11397": "例如", "11398": "(-", "11399": " mant", "11400": "emy", "11401": " molecular", "11402": "��", "11403": "olar", "11404": " sido", "11405": " vec", "11406": " 계", "11407": "ایی", "11408": " worden", "11409": "ää", "11410": "적으로", "11411": "});\n\n", "11412": " election", "11413": "angan", "11414": " ini", "11415": ".ap", "11416": " veloc", "11417": " killed", "11418": "ува", "11419": " haben", "11420": " Way", "11421": " ", "11422": "-V", "11423": "rey", "11424": "'e", "11425": "’elle", "11426": "Pos", "11427": "Window", "11428": "+\\", "11429": "正", "11430": "فع", "11431": "ammen", "11432": " comparison", "11433": " أحد", "11434": " кра", "11435": "до", "11436": "ное", "11437": "дин", "11438": " axis", "11439": "menu", "11440": " bill", "11441": " कि", "11442": " py", "11443": "по", "11444": " wife", "11445": " polic", "11446": " Dur", "11447": "irection", "11448": "asc", "11449": "文", "11450": "۸", "11451": "gery", "11452": " ov", "11453": " των", "11454": " 많", "11455": " Scott", "11456": " dil", "11457": "ycl", "11458": "UM", "11459": " cultural", "11460": " nad", "11461": " Bon", "11462": " increases", "11463": "çais", "11464": "ارس", "11465": "estra", "11466": " tanto", "11467": " experimental", "11468": " որ", "11469": "лись", "11470": " Sy", "11471": "++)\n", "11472": "olt", "11473": "Server", "11474": "bool", "11475": " 반", "11476": " surround", "11477": "ản", "11478": " Create", "11479": "ío", "11480": " drop", "11481": ".user", "11482": " literature", "11483": " thinking", "11484": "ப்ப", "11485": " variety", "11486": "iza", "11487": "Password", "11488": "TV", "11489": " stored", "11490": "ως", "11491": " vehicle", "11492": "재", "11493": " Joseph", "11494": "itate", "11495": " providing", "11496": " XX", "11497": " suffer", "11498": " يح", "11499": "\"),", "11500": " runs", "11501": " Council", "11502": "وك", "11503": " Even", "11504": " mouth", "11505": "itis", "11506": "раз", "11507": "beit", "11508": "reme", "11509": "stell", "11510": " tiem", "11511": " Atl", "11512": " Model", "11513": "rog", "11514": " muy", "11515": " collected", "11516": "stall", "11517": "first", "11518": " none", "11519": "endif", "11520": " vào", "11521": " straight", "11522": " architect", "11523": " RNA", "11524": " وح", "11525": " village", "11526": "uso", "11527": " Army", "11528": "template", "11529": " جن", "11530": " shared", "11531": "adata", "11532": "plot", "11533": " Indian", "11534": " career", "11535": " koj", "11536": "ком", "11537": " Leb", "11538": "ồ", "11539": "('/", "11540": "ocs", "11541": "avas", "11542": " Mann", "11543": " batt", "11544": "はい", "11545": "zten", "11546": " traditional", "11547": "Web", "11548": "ieg", "11549": " Fra", "11550": "եց", "11551": " profile", "11552": " Royal", "11553": " kap", "11554": " Ra", "11555": " tub", "11556": ".\\", "11557": " Jew", "11558": "ums", "11559": " alternative", "11560": " Great", "11561": "ورد", "11562": " بح", "11563": "}}{", "11564": "well", "11565": " fle", "11566": "omer", "11567": " succ", "11568": "-ex", "11569": " méd", "11570": " Court", "11571": " הא", "11572": "unque", "11573": " birth", "11574": " IL", "11575": "izontal", "11576": " nan", "11577": " sust", "11578": "android", "11579": "efined", "11580": "حدة", "11581": "ierung", "11582": "是的", "11583": " UI", "11584": " serve", "11585": "்கள", "11586": "бли", "11587": "Es", "11588": "�", "11589": " gaz", "11590": " жи", "11591": " bor", "11592": "こと", "11593": " medic", "11594": " від", "11595": "ları", "11596": " ఆ", "11597": "greg", "11598": "eln", "11599": " SS", "11600": "ป", "11601": "قال", "11602": "……。", "11603": "직", "11604": " mismo", "11605": " camb", "11606": " ihre", "11607": " hypoth", "11608": " finished", "11609": "oven", "11610": "�", "11611": " chance", "11612": "('#", "11613": "Resource", "11614": "יק", "11615": " 장", "11616": " edit", "11617": "ظام", "11618": " secondary", "11619": " seus", "11620": "ից", "11621": ".**", "11622": "治", "11623": " Any", "11624": "نی", "11625": "}>\n", "11626": "eda", "11627": "Main", "11628": "ymph", "11629": " فإن", "11630": " Bill", "11631": "NAME", "11632": " Mill", "11633": "üd", "11634": " California", "11635": " plural", "11636": " gior", "11637": " Lee", "11638": " hop", "11639": "attr", "11640": " 실", "11641": " για", "11642": "raint", "11643": "jours", "11644": "emple", "11645": "此外", "11646": "uint", "11647": ".json", "11648": "Script", "11649": " sexual", "11650": "ій", "11651": " COVID", "11652": "<T", "11653": "ром", "11654": " Juan", "11655": "Dep", "11656": " پر", "11657": " dels", "11658": " stack", "11659": " discover", "11660": "(id", "11661": "rière", "11662": "ellig", "11663": "peed", "11664": " Western", "11665": " manner", "11666": "。《", "11667": "iri", "11668": "auto", "11669": "初", "11670": "əl", "11671": "anya", "11672": " تو", "11673": " moder", "11674": "開", "11675": " soc", "11676": " tested", "11677": "ೀ", "11678": " importance", "11679": "్ట", "11680": "ests", "11681": "_url", "11682": " Rock", "11683": " خود", "11684": "ぁ", "11685": " Ig", "11686": " év", "11687": "ads", "11688": " responses", "11689": " الأس", "11690": " Real", "11691": "atori", "11692": " mist", "11693": " شده", "11694": "nis", "11695": " angle", "11696": " patterns", "11697": "username", "11698": "東", "11699": "โ", "11700": "版", "11701": " align", "11702": " مص", "11703": "لت", "11704": "}}\\)", "11705": " padding", "11706": " tháng", "11707": "গ", "11708": " implementation", "11709": "انه", "11710": " 통", "11711": "aby", "11712": "elli", "11713": ".next", "11714": " dav", "11715": " meant", "11716": " execut", "11717": "Types", "11718": "λη", "11719": "Location", "11720": " rod", "11721": " akt", "11722": ".status", "11723": " iter", "11724": " transmission", "11725": " reb", "11726": " السي", "11727": "joy", "11728": "וא", "11729": " sun", "11730": "ğı", "11731": " أع", "11732": " Big", "11733": " plays", "11734": "iembre", "11735": " giving", "11736": "ət", "11737": " Ros", "11738": "ती", "11739": " cryst", "11740": "্ট", "11741": "ահ", "11742": " driver", "11743": " phil", "11744": "িন", "11745": "Here", "11746": " membrane", "11747": " PA", "11748": " JSON", "11749": " enf", "11750": " dent", "11751": " Lord", "11752": "ativa", "11753": " \\\n", "11754": "tok", "11755": " Ann", "11756": " theor", "11757": "uras", "11758": "اک", "11759": " ago", "11760": "reb", "11761": "ут", "11762": " alk", "11763": "유", "11764": "uble", "11765": "Email", "11766": "것", "11767": ".aspx", "11768": "ographic", "11769": "וס", "11770": "んな", "11771": " recently", "11772": " bag", "11773": " anterior", "11774": " majority", "11775": "�ი", "11776": "ाव", "11777": " jako", "11778": " measures", "11779": " missing", "11780": "する", "11781": " ow", "11782": " Dar", "11783": "дар", "11784": " تأ", "11785": "inda", "11786": "player", "11787": " repro", "11788": " Love", "11789": "조", "11790": "演", "11791": "inas", "11792": "িল", "11793": " 할", "11794": "ibli", "11795": "新", "11796": " Each", "11797": " nit", "11798": " reform", "11799": "core", "11800": "овы", "11801": "/v", "11802": "}=\\", "11803": " ban", "11804": "(true", "11805": " teams", "11806": " challeng", "11807": "nb", "11808": "óg", "11809": " دور", "11810": "/**\n", "11811": " ensure", "11812": " breath", "11813": " Ε", "11814": " campaign", "11815": "OC", "11816": "）：", "11817": " гру", "11818": " Organ", "11819": "pis", "11820": " info", "11821": " Home", "11822": "lear", "11823": " Stand", "11824": " protection", "11825": " য", "11826": " Maj", "11827": " pert", "11828": " morning", "11829": " remaining", "11830": " Kore", "11831": " ready", "11832": " news", "11833": " ihn", "11834": " dann", "11835": " minimum", "11836": " σε", "11837": "ाद", "11838": "ución", "11839": " iç", "11840": " programs", "11841": " Color", "11842": " ll", "11843": " versch", "11844": "bul", "11845": " ين", "11846": " settings", "11847": "anned", "11848": " Rep", "11849": "〉", "11850": "У", "11851": " creating", "11852": "部", "11853": " 눈", "11854": " Island", "11855": " beyond", "11856": " Department", "11857": " algorithm", "11858": " Fort", "11859": " 한다", "11860": "aille", "11861": " nouveau", "11862": "+%", "11863": "aughter", "11864": " destroy", "11865": " confirmed", "11866": " san", "11867": " sufficient", "11868": " studied", "11869": "zd", "11870": " المست", "11871": "なお", "11872": " Matt", "11873": " pron", "11874": "Don", "11875": " ('", "11876": "_L", "11877": "\\)-", "11878": " série", "11879": " journal", "11880": " pelo", "11881": "infty", "11882": " WH", "11883": " chemical", "11884": " Inc", "11885": " commercial", "11886": ">();\n", "11887": "ikk", "11888": " Ét", "11889": " исп", "11890": "itat", "11891": "Mon", "11892": " weiter", "11893": "Oper", "11894": " عم", "11895": " onder", "11896": "\tcase", "11897": "card", "11898": "_g", "11899": "ць", "11900": "ך", "11901": "icio", "11902": "ога", "11903": "btn", "11904": " clearly", "11905": " Java", "11906": "'),\n", "11907": " وك", "11908": " mond", "11909": " لأن", "11910": "дан", "11911": " plusieurs", "11912": "leich", "11913": "bst", "11914": " Award", "11915": " exposure", "11916": " subjects", "11917": "Das", "11918": "由", "11919": "ls", "11920": " Mic", "11921": ".ts", "11922": " në", "11923": "ervlet", "11924": "========", "11925": " establish", "11926": "зе", "11927": "ната", "11928": "angular", "11929": " symptoms", "11930": " 진", "11931": " pon", "11932": "ibt", "11933": "��", "11934": " mainten", "11935": "-ci", "11936": " organization", "11937": " mé", "11938": "!”", "11939": "ிக", "11940": "auer", "11941": "SA", "11942": " اخ", "11943": "��", "11944": " fluid",
[...]
